<blank>
▁t
he
▁a
▁the
in
▁s
▁w
▁o
re
nd
▁b
▁h
er
▁m
▁i
ou
▁c
▁f
ed
at
▁and
en
on
▁of
▁to
is
▁p
▁d
ing
▁th
or
es
▁he
▁in
▁l
it
an
ar
as
ll
▁n
▁g
om
▁be
▁ha
▁e
le
ot
ic
ut
ow
▁wh
▁it
▁y
ld
▁that
ly
ve
▁was
se
st
id
▁on
ent
gh
▁re
im
ion
▁u
ce
▁you
ver
al
▁we
▁as
▁for
ir
et
ith
ay
▁his
▁r
▁with
▁st
ur
ad
ght
▁an
▁is
ter
▁not
▁had
ac
▁her
her
am
▁at
oo
▁but
ould
▁se
▁she
▁k
▁fr
▁sh
ain
▁so
▁su
ill
ch
▁sa
ight
▁him
▁me
ct
red
ro
all
il
ess
ke
▁they
ore
▁de
▁whe
▁all
ich
▁by
▁con
pp
ri
▁ne
▁my
▁this
ome
us
▁have
▁li
▁which
ul
▁ch
qu
▁j
▁do
▁from
ge
▁up
ard
▁or
▁v
▁ex
▁were
▁one
pe
th
▁said
▁no
est
and
▁there
ble
ation
res
▁man
▁who
ant
▁al
ous
▁them
ie
ust
▁fe
very
nt
ers
ame
▁when
ist
ra
▁their
▁int
fe
ast
ind
ood
os
lf
▁are
ong
art
▁go
▁le
out
ate
▁kn
▁com
▁would
our
ound
▁wor
▁if
▁ab
ak
▁out
em
um
ol
▁will
un
▁mis
▁what
ig
ap
one
ough
if
itt
▁been
ked
▁pl
ive
▁tr
▁pro
ven
▁ar
own
reat
▁un
ity
ther
▁ro
▁br
▁then
▁af
▁sp
▁pr
▁tw
▁qu
self
ost
ort
hed
▁ag
▁could
ure
▁am
ace
ake
▁some
▁en
▁any
ack
ag
▁more
▁can
▁tim
▁into
au
ep
▁cl
ry
ck
ies
▁gr
op
▁your
nder
hing
ose
ved
▁bo
el
▁other
▁now
ance
are
▁very
ine
▁than
able
▁im
▁dis
ide
▁did
ass
ittle
way
▁co
▁us
▁little
▁like
▁loo
ite
ence
▁ad
▁bl
▁day
urn
cc
ment
ought
▁time
fore
▁over
other
ade
ab
▁te
▁how
pt
▁great
ci
ree
▁about
ice
▁after
wn
▁per
▁know
▁lo
▁upon
▁fl
de
ish
pl
ally
▁see
▁too
▁again
▁has
ink
ress
▁our
ars
▁po
ount
▁only
▁two
▁hand
▁pe
ire
▁should
ving
▁well
▁its
▁good
ings
ves
ather
▁app
▁say
ty
per
▁down
ile
ions
▁before
te
we
▁every
age
tain
▁old
▁made
ang
▁mu
▁thr
▁long
ied
▁where
▁these
ick
▁such
▁mar
▁pre
▁sc
ful
ue
▁part
▁sm
▁str
ward
ild
act
ft
ious
▁fir
ull
▁must
▁off
▁under
▁came
ated
▁never
▁bec
▁miss
▁fo
▁even
ans
ord
ness
ber
▁may
▁rem
▁way
▁spe
led
ect
▁much
▁ye
orn
▁mister
▁come
ren
▁ey
ach
▁cont
ise
ary
▁gl
▁back
▁think
▁let
▁bet
▁first
▁ob
▁thought
▁men
ud
▁just
▁des
▁own
▁mo
▁res
▁sl
▁here
cl
▁ho
▁look
co
ried
ip
ff
llow
▁himself
ady
▁car
▁might
▁fa
ily
▁comp
▁went
▁seem
ave
▁cr
oss
ouse
anc
▁wat
▁beg
ath
iz
▁imp
▁through
▁most
▁em
▁pres
▁bel
▁cons
ted
▁those
▁without
▁acc
▁away
▁get
▁make
▁life
▁head
▁comm
▁new
▁pass
▁jo
ened
hes
▁turn
▁house
▁call
▁som
ks
▁still
▁many
less
▁don
▁op
▁ent
▁eyes
ix
▁wom
▁being
ause
▁somet
▁found
ons
ory
ign
▁shall
▁night
▁three
ared
▁take
ors
▁last
▁while
ens
▁ear
ds
▁peop
ible
▁ind
les
▁ser
iv
▁put
▁nothing
ition
ase
▁count
ng
▁la
aking
▁same
▁people
▁att
▁tell
dy
ark
▁ret
oth
fect
▁mat
pect
▁young
ered
▁saw
igh
▁yet
▁far
▁wr
▁right
▁nor
▁place
▁hu
▁once
▁dist
▁child
▁nat
▁inst
▁arm
ult
▁another
▁though
get
▁room
▁end
ince
ations
▁work
vent
ian
▁cour
iend
▁king
ia
ew
ub
▁happ
▁inte
air
▁father
▁ever
▁rep
▁friend
man
▁ac
▁took
▁char
▁set
ished
int
▁supp
▁want
gg
▁light
▁mind
cess
thing
av
▁pers
sel
▁act
▁things
so
▁face
ict
▁cap
ertain
▁gen
▁heart
ject
irl
▁ple
▁missus
▁world
▁ke
▁sub
ower
▁form
ently
ways
▁left
▁find
▁wa
▁asked
▁dif
▁sw
alk
▁looked
▁mom
▁war
der
ange
▁moment
▁thing
pped
▁el
▁always
▁soon
ical
▁sat
▁mother
ced
rew
▁rel
ple
ling
orm
▁appe
▁girl
▁eng
dd
▁mon
▁sur
▁gu
ither
▁yes
▁ans
▁poss
▁love
▁seemed
▁because
▁why
aught
▁follow
▁give
ual
▁heard
aut
▁reg
land
▁gi
ne
▁something
lt
▁sir
▁ma
▁wind
iver
▁inf
▁home
ning
ched
ret
▁going
▁rest
▁water
▁vo
ond
ph
▁cle
▁years
▁unt
▁return
▁feel
ever
▁del
▁bu
▁got
▁four
▁hor
ook
▁hands
▁woman
▁each
cept
ited
ner
▁bre
▁against
▁ph
ss
▁few
▁told
▁door
▁belie
▁exp
ru
ail
ool
ters
▁conf
▁ass
▁kind
most
▁boy
ined
▁also
ial
▁certain
▁side
▁hard
▁near
ired
ting
rest
▁min
▁sil
ps
▁hel
▁knew
iness
row
▁began
▁gener
▁having
▁inc
▁hum
ib
▁god
▁care
▁ter
▁half
ason
▁pur
ream
▁better
een
▁among
▁done
▁called
▁enough
oub
ully
▁che
▁dra
aps
▁quite
aken
▁lar
ock
▁tre
gether
▁oh
ier
ten
ates
▁beh
selves
▁inde
▁whole
ction
ying
ised
▁ste
ross
▁six
▁seen
▁eight
uth
▁small
ank
▁ref
ween
▁occ
▁cur
▁between
▁pleas
▁col
▁hour
▁does
▁morn
▁tra
▁toward
ular
▁add
▁both
ndred
▁hundred
ged
▁turned
ense
▁course
osed
▁sou
▁gave
▁beaut
▁ins
ces
▁inter
▁read
▁keep
▁sim
▁wo
▁ed
▁open
▁sk
ating
▁high
▁fore
aster
▁almost
▁morning
ures
bo
▁however
ute
▁sent
▁land
▁days
▁sure
ents
ained
vel
▁name
▁show
▁poor
xt
▁ev
▁felt
▁met
▁whom
▁white
▁best
▁fam
▁repl
▁until
uck
▁words
aint
▁sle
▁prin
▁country
amp
dden
▁stood
ned
▁stand
haps
▁dear
its
als
▁perhaps
▁thir
▁power
enty
▁wi
aring
▁sun
▁bus
up
ung
▁mean
rent
▁gre
▁gra
▁lady
ins
▁pa
▁sudden
▁fact
▁since
du
▁myself
▁less
▁herself
iet
▁contin
▁lat
▁bro
▁use
ately
not
▁dr
rib
med
▁dark
▁adv
▁voice
▁round
ton
▁bar
▁cat
▁unc
▁vis
▁ide
▁need
eter
▁underst
▁together
▁brought
▁anything
▁lay
▁law
▁mil
▁pat
▁present
▁next
▁aw
▁par
▁quest
▁person
cei
▁till
▁replied
fully
▁cond
▁sn
▁fin
nded
▁fall
▁help
▁sy
▁air
▁five
▁feet
▁adm
lic
▁indeed
▁others
▁point
ured
ows
▁har
ities
ments
▁large
▁black
▁full
▁matter
▁ext
▁interest
▁themselves
iss
uring
▁along
oney
▁mor
▁spo
iled
▁es
ering
▁looking
▁rather
▁thus
ressed
▁doct
▁ele
oc
▁dire
▁real
▁art
▁lord
▁twenty
ash
fort
▁pol
▁cried
ention
▁nature
oun
▁doub
ove
▁opp
▁hope
▁word
▁taken
pr
▁gent
itu
akes
▁cor
▁rec
ield
mb
ably
▁cannot
▁wife
▁run
tle
▁fire
az
▁mer
▁diffe
▁speak
▁thous
▁children
▁thousand
ached
▁dep
▁wood
ene
ants
vers
ued
▁death
▁swe
▁bes
▁bed
▁whose
▁serv
▁sound
▁reason
▁gone
▁suff
▁inv
▁talk
▁mount
▁sec
ison
▁wonder
ided
ances
▁true
app
▁fort
▁const
▁behind
▁red
ane
▁dec
oud
od
cy
▁state
▁prom
oy
▁lau
▁compan
▁believe
illed
▁hold
▁earth
▁close
ief
▁passed
ets
used
▁play
▁sing
▁ra
iting
me
▁ground
ery
▁body
▁hon
ains
▁money
▁gentle
ont
▁horse
fic
▁fif
▁tem
▁start
▁num
▁often
▁fur
▁obs
ken
ceed
wered
▁therefore
▁remem
ually
▁sea
▁hur
▁dead
▁alone
▁master
aces
▁answered
ides
▁prop
ceived
ys
ians
▁bir
▁ir
cond
▁deep
og
▁given
▁short
▁spir
osition
▁friends
ept
▁strong
owed
▁spr
▁cir
aced
▁doctor
ider
anger
hn
▁hear
▁doubt
▁leave
ized
be
hen
▁sign
▁second
gth
▁pri
ific
▁bur
body
▁eas
wer
▁ca
▁son
▁general
vern
▁ill
▁fell
▁abs
▁gold
▁brother
▁pap
vered
▁ten
▁ce
▁stre
▁city
▁town
▁dri
▁lear
read
ident
▁john
▁order
▁wall
iful
▁aff
▁sch
▁really
idd
unt
▁ru
▁women
▁itself
▁expl
men
ages
ines
▁ask
▁chr
▁above
ution
▁question
▁least
▁within
▁tri
▁fair
▁wish
▁dream
▁used
▁known
▁times
aughter
ready
▁big
▁during
▁already
▁coming
ety
▁whether
▁thou
▁necess
▁dro
▁mag
▁leg
▁soci
ching
▁circ
gn
▁around
▁case
▁understand
ale
▁mus
▁human
▁reco
▁clear
▁sever
aim
hip
▁prof
imes
▁mad
▁sight
ience
▁expect
cer
▁list
▁fear
▁returned
▁either
▁became
▁held
▁means
▁lad
▁captain
▁suddenly
▁meet
tered
▁river
▁obser
ger
▁sum
▁quick
▁wal
▁cal
▁year
▁lea
▁exc
ister
▁sort
▁dem
▁evening
ott
▁sleep
▁object
lish
old
iew
ote
▁hus
▁lost
▁everything
ient
▁making
▁past
▁bat
▁several
ts
▁soul
eric
lly
▁bring
▁step
ape
here
▁table
▁equ
▁live
ffect
▁cut
▁cent
▁govern
▁else
▁kept
ility
▁jud
▁foot
▁charac
▁perfect
▁ship
▁beautiful
▁dev
▁ran
▁est
▁disc
▁mist
▁prov
▁manner
▁appro
cious
▁pal
▁squ
▁towards
▁corn
uc
oon
▁says
▁proper
▁different
▁possible
▁exper
▁strange
ught
▁fellow
▁sometimes
iam
llect
ingly
▁anim
▁pie
▁stra
▁pub
▁road
▁subject
▁exist
▁become
▁effect
▁family
▁lead
▁rose
teen
rence
▁walk
▁appear
itted
▁bad
▁wild
▁grand
▁prince
lled
iously
▁business
owing
▁free
▁fre
▁fine
▁diffic
mer
▁low
▁cold
▁consider
▁arms
ative
▁ut
▁comple
▁sal
▁arri
ony
▁natur
▁christ
by
bed
▁answer
airs
▁truth
▁hen
▁sto
▁disco
▁win
▁story
▁bit
▁creat
▁ready
▁regard
band
▁direct
▁rock
▁express
▁won
▁pret
▁idea
ey
▁able
▁cast
▁followed
▁requ
rie
▁eye
▁pain
▁possess
▁tou
une
▁mur
ased
ination
▁respect
eth
▁didn
ouble
▁begin
▁dest
▁except
▁spirit
▁across
▁common
▁husband
tern
▁hair
▁accord
▁partic
▁excl
▁carried
▁chur
itting
▁mere
ices
▁val
▁succ
▁soft
▁rich
▁surpr
empt
▁quiet
nding
▁command
▁reached
utes
▁heav
alth
anged
▁school
▁sold
▁letter
▁glad
▁blood
isf
▁cross
aw
antly
▁happy
▁fight
▁wee
ster
▁character
▁ann
▁thy
▁forg
▁gard
ah
br
▁hill
▁americ
▁daughter
ham
king
ract
▁produ
▁din
▁flo
▁sus
to
▁slow
▁tree
▁occas
▁imag
▁view
▁fav
▁continued
▁longer
ches
▁appeared
▁green
oura
▁var
▁sens
▁div
ising
▁purp
▁window
▁account
▁hast
ots
▁hea
▁english
▁success
ric
▁ve
▁vir
itude
▁stri
▁rus
▁number
use
medi
ug
▁sor
ask
gin
▁break
▁dut
▁exam
▁mot
ones
▁scar
▁import
▁taking
▁decl
ley
umb
▁tom
▁saying
ats
▁pen
▁suppose
▁dog
▁esc
▁later
ump
▁move
ism
▁ought
▁public
ality
ards
▁ap
▁quar
▁church
▁sense
▁uncle
▁danger
ert
▁month
▁bright
ames
▁prep
▁spoke
▁satisf
▁eff
▁hung
▁trans
▁sweet
▁immedi
▁stay
▁party
▁def
▁port
▁disp
▁certainly
▁thee
▁hours
▁seven
▁wanted
▁draw
cul
▁carry
▁heaven
▁opened
ze
▁blue
▁book
▁field
▁cry
ime
▁sevent
▁remember
▁prot
ize
ney
▁sho
▁secret
ms
▁lived
▁pretty
▁street
ils
outh
▁smo
▁prob
▁tried
iling
▁ord
ury
▁breat
owers
▁shad
ann
▁disapp
bit
▁eat
▁len
▁delight
idence
▁eighteen
▁received
▁alth
▁sol
▁worth
ledge
▁offic
▁although
ror
riage
▁seems
▁led
▁maj
▁princi
▁stud
▁fig
▁hot
▁feeling
day
▁bey
▁none
▁dress
▁acqu
▁beyond
li
uct
side
▁sad
▁forward
▁particular
▁pay
▁ge
▁tor
gr
lect
▁self
▁mill
▁neigh
▁entire
▁bene
inct
▁med
▁fast
▁entered
▁front
▁neighb
▁accom
▁garden
ead
▁living
▁phil
▁princess
▁cause
arent
▁further
aimed
▁early
pper
▁age
▁neither
▁mem
▁affect
resh
▁pract
▁bra
▁miles
▁bab
▁forth
inted
▁bill
▁pray
ously
▁nearly
ern
▁wis
▁crow
▁hist
▁det
▁clot
▁chief
▁cre
ilt
▁joy
▁line
▁repe
▁ang
▁visit
iar
▁court
ov
▁doing
uff
▁change
ls
▁da
anced
▁news
▁comfort
▁occasion
▁lab
▁laugh
▁lu
▁vill
▁super
pend
lling
iff
▁fren
▁walked
where
▁minutes
▁pleasure
ented
▁deal
▁camp
▁trees
▁enem
▁hall
▁added
the
▁vi
▁happened
▁concer
inary
▁purpose
gy
wards
ounded
▁desc
▁government
▁hat
ement
ming
▁build
▁laid
▁pict
▁plain
▁top
▁try
▁opin
▁thirty
oof
iment
▁late
▁circum
ists
▁bell
els
▁tal
▁mouth
▁sister
▁fle
▁main
ening
▁desp
▁stren
wh
▁cra
cient
▁plan
▁natural
iter
▁attention
ues
▁necessary
▁whis
▁knight
▁class
▁caught
▁rev
▁fing
ically
▁deter
▁force
form
▁chap
▁heavy
▁england
mon
ored
▁av
▁auth
▁grew
▁queen
sy
ior
▁peace
hood
raid
▁terri
▁chance
ler
▁north
▁forest
▁standing
▁beauty
▁instead
▁french
ustom
▁fifty
rupt
▁island
▁length
ply
ining
▁silence
▁hop
▁remain
▁determ
icked
▁trouble
▁faith
▁lie
▁anx
▁aunt
▁den
▁lim
▁seeing
▁er
▁enc
▁prison
▁infl
ius
▁position
▁girls
▁gentleman
▁south
▁attempt
▁born
▁afraid
▁stopped
▁army
▁conv
▁brown
usion
ush
▁je
▁conse
ma
▁drew
▁thoughts
▁wit
▁ago
▁boys
▁saint
▁treat
▁company
▁thinking
▁yourself
fered
▁shar
▁thick
ggest
bs
▁suggest
▁burn
ceive
ives
▁arr
▁bear
iced
▁incl
▁accept
▁whate
▁following
▁ah
▁eag
▁rom
▁nar
▁straight
▁deg
▁priv
▁knowledge
aged
▁resol
▁whatever
▁enj
▁food
▁spring
head
asp
▁hy
▁third
▁inform
▁peter
▁imposs
▁scarce
▁immediately
ics
▁stone
▁profess
▁exclaimed
▁du
ooks
▁hardly
▁rid
▁vict
▁contr
▁hig
▁circumst
▁meant
▁rap
▁grow
itions
▁states
pping
▁moon
▁smile
▁mine
▁fat
tained
▁paper
▁distance
▁complete
▁wait
▁author
ivid
▁hors
▁died
▁pull
▁filled
▁ball
▁result
▁struck
▁society
str
▁loved
▁besides
▁jour
▁convers
▁inqu
▁desire
io
ghed
isted
▁exact
▁makes
ences
▁warm
ging
▁watch
▁horses
▁placed
ift
▁nin
▁mary
▁dinner
▁difficult
amed
▁rob
▁meas
▁save
▁broken
▁effort
▁coun
aded
▁wide
▁slowly
ges
▁incre
▁wrong
▁slight
▁glass
▁youth
iers
▁und
▁obl
▁inn
▁compl
▁gun
▁easy
▁getting
bert
gress
▁snow
cially
▁comes
▁polit
acy
▁conn
▁west
▁depart
son
ries
▁relig
▁sitting
▁impossible
ork
▁palace
▁proceed
▁quickly
ases
cho
▁ty
▁box
▁belong
ified
val
▁ori
▁started
aching
▁remained
▁bound
tend
▁mass
▁post
▁chair
▁crowd
ny
▁imm
ively
uit
▁ant
▁boat
▁single
▁nine
▁forgot
▁gar
▁aftern
▁mid
▁fool
▁beside
▁fright
▁strength
▁pop
▁commun
oured
▁tears
▁une
▁maid
gan
▁ger
▁viol
▁laughed
▁opinion
▁fix
ancy
▁concl
▁dread
▁fresh
▁demand
ories
▁tone
dom
▁hunt
▁waiting
▁die
▁lang
ugg
▁action
▁floor
▁piece
▁mountain
▁id
arch
▁mess
▁sac
▁coll
▁doll
▁please
▁fun
▁thank
▁sky
▁send
▁outside
▁probably
▁lips
▁sand
▁music
▁suffic
▁greater
▁afternoon
▁lift
▁week
▁beat
ope
par
reme
▁gall
und
▁event
▁simple
▁arrived
▁forget
▁guard
▁safe
▁gaz
▁espe
itten
▁weak
▁mark
▁below
▁service
ires
▁fly
▁anne
▁duty
▁speaking
▁stop
▁influ
▁occup
▁van
▁ver
▁recogn
hel
▁loc
ald
▁bird
▁grace
▁grave
▁according
ee
erv
cial
▁shout
▁chapter
let
▁path
▁latter
ency
▁exh
aped
ndon
▁cho
▁fash
iddle
itation
▁pun
onel
ourage
▁usual
▁battle
▁history
▁giving
ises
ston
▁talking
▁cab
▁pock
▁drink
▁mention
bar
▁sym
dered
▁forty
▁repres
▁experience
▁z
▁gro
hered
▁former
▁appearance
ital
▁shut
▁moved
▁remark
▁expected
▁purs
▁london
▁winter
▁enjoy
▁nation
atic
▁couldn
▁showed
▁entirely
▁tur
arer
vere
▁corner
▁learned
▁bank
▁phys
▁presence
▁eager
▁easily
▁stream
▁neck
▁shore
▁conscious
▁trust
▁clothes
▁sav
orted
▁spee
ship
▁especially
uss
▁sick
▁books
gar
▁evil
▁spec
▁scarcely
oom
ivers
▁langu
▁months
▁neg
▁wished
▁fashion
uel
▁knows
▁consequ
▁star
▁breath
▁spot
▁fut
▁oper
▁situ
ishing
ushed
▁bread
▁occur
▁killed
olog
wise
ram
▁twel
▁turning
▁merely
▁twelve
▁leaving
tended
▁figure
▁covered
▁happiness
▁wise
▁married
fer
▁mel
ature
velop
▁jack
▁condition
▁kill
▁raised
▁changed
▁beginning
▁rapid
▁ladies
▁office
▁subst
▁expression
▁sit
▁direction
ipped
mit
yal
▁fal
▁train
▁morrow
▁tender
▁game
▁pleasant
mn
▁origin
▁wonderful
aled
rief
▁places
▁fortune
▁individ
▁conversation
jo
▁suc
▁closed
▁running
▁liber
ulty
▁magn
▁cou
▁board
▁finally
itch
▁geor
▁iron
▁allowed
llig
osing
ouses
oop
come
well
idered
▁guess
▁persons
ibly
▁tast
▁oblig
ounds
▁bott
▁simply
▁tail
▁golden
▁terrible
▁arg
▁civ
▁conduct
▁instant
▁ban
▁silent
▁understood
pic
▁virt
▁trying
▁flowers
ument
pered
▁enter
▁important
bered
▁vall
▁dam
▁individual
▁becom
▁enemy
▁escape
uted
▁pra
▁shot
▁admir
▁decided
▁succeed
ples
▁major
▁prevent
▁afterwards
▁ben
▁isn
▁vol
▁marg
▁tall
▁minute
▁social
ript
uous
▁pet
iding
olute
▁clim
▁fish
▁blind
▁reach
▁journey
inite
▁observed
▁tea
eness
light
▁sole
▁sla
▁broad
▁wouldn
ests
▁mir
▁beast
▁trave
▁butter
cell
fast
▁connect
ruct
▁empl
▁unless
▁surprise
▁existence
▁cand
▁furn
▁legs
▁sail
▁lives
▁sword
▁utter
▁circumstances
osp
semb
▁silver
▁thor
sh
▁deser
▁write
ax
ume
▁stir
cience
▁separ
▁pot
▁resp
▁estab
▁american
▁jew
▁flat
▁prev
▁ideas
ference
orth
▁broke
▁written
het
unk
▁rain
▁steps
▁opport
▁wand
▁strugg
ator
erial
▁frequ
▁sharp
▁perfectly
▁sett
▁walls
▁intellig
enth
▁shook
▁animals
▁impress
▁lam
▁mut
▁pale
ission
▁repeated
▁president
▁discovered
▁ign
▁stick
▁absolute
▁threw
▁bitter
▁temper
▁ancient
zz
▁dim
▁animal
▁assist
▁narrow
▁speech
▁learn
▁custom
▁property
zen
ec
oved
▁houses
▁spread
roy
▁rub
▁ves
▁firm
▁lying
▁employ
▁madame
ina
▁ears
▁elect
▁revol
ours
▁delic
oses
rect
▁develop
▁lean
▁future
▁middle
▁beneath
rodu
▁cup
▁lou
▁baby
▁grass
▁passing
▁opportun
▁famil
▁reply
▁motion
▁yellow
kes
urs
umed
▁earn
▁jane
▁shadow
▁fit
▁habit
que
▁pros
▁spite
▁summer
▁considered
clock
acked
▁marry
ell
lend
▁built
▁heads
idden
ision
▁calm
▁civil
▁moder
▁disappe
▁dropped
▁various
▁dom
▁bottom
▁darkness
▁san
▁protect
▁determined
iod
▁kiss
▁mach
▁presently
▁believed
▁fer
▁host
▁conce
▁press
▁marriage
▁dar
anging
▁parts
▁excell
itc
▁inj
▁note
▁race
▁surf
ishment
▁attack
▁influence
aret
▁bag
▁grou
▁grant
▁exactly
▁intellect
▁extra
▁advant
▁health
ayed
▁bow
retched
▁listen
▁dressed
▁bod
▁mal
▁pick
▁cover
▁constit
▁perform
▁pleased
what
▁ven
ables
▁lake
▁seat
▁birds
▁describ
under
▁ring
▁letters
▁creature
▁somewhat
itary
▁harm
▁loud
▁storm
ral
▁paid
▁suit
▁contro
▁leaves
pan
▁ham
▁empt
▁apart
▁period
▁colonel
▁greatest
▁ur
▁fol
▁song
▁impro
▁fifteen
▁jul
▁lin
action
erable
▁egg
▁hes
▁defe
▁vent
▁allow
▁judge
▁apparent
uded
▁cost
▁ways
▁wrote
▁formed
▁sorrow
▁passion
▁william
▁ine
▁gate
tering
▁aston
▁drawn
▁royal
▁united
▁mountains
▁mort
▁cheer
▁agre
▁disg
▁gray
my
▁east
▁likely
▁valley
▁wealth
cise
▁lot
▁comb
▁spent
▁castle
▁surely
▁village
▁weather
▁declared
▁remembered
▁meth
▁space
▁educ
▁exer
▁german
ingu
▁laws
▁grown
▁touch
▁degree
rer
iction
▁pocket
▁vessel
▁carefully
▁dry
▁greatly
▁personal
▁difficulty
ague
▁cham
▁lower
▁tired
▁notice
iety
▁breakfast
arily
▁stro
▁favor
▁speed
▁advent
▁drawing
▁york
ration
▁noble
idently
▁honest
af
▁hero
▁agree
▁faint
▁splend
▁extreme
oted
▁cous
▁dick
▁scene
▁stranger
pet
rel
▁brid
▁fail
▁ones
nday
oose
▁jer
▁mod
osite
▁soldiers
▁pure
▁fixed
▁sorry
▁holding
▁nice
▁promise
▁smiled
wood
ancing
▁cook
▁tong
▁finished
▁clean
▁worse
▁knowing
▁everybody
ocr
▁bal
▁jim
isters
▁desce
▁equal
▁collect
iny
ipp
▁chee
▁bless
▁henry
▁remar
▁picture
▁watched
key
▁goes
iently
ring
▁thin
▁meaning
▁ourselves
▁wel
▁material
stem
acher
▁alto
▁situation
ilar
▁rail
▁wond
▁serve
▁fingers
▁altogether
aked
cing
ites
▁capt
▁honor
▁france
▁nobody
▁noticed
▁surface
gged
▁pan
▁opposite
▁inh
▁sen
osity
▁eliz
▁symp
▁thro
▁woods
ium
▁sin
▁surr
▁courage
ashed
▁looks
▁shape
▁introdu
▁system
▁cit
▁imper
▁forgotten
▁burst
▁distinct
itive
▁noise
▁fallen
▁anxious
▁distingu
▁pi
hest
nown
▁eur
▁unk
▁waited
▁confess
▁reflect
▁mix
▁exec
▁grat
bur
ested
▁edge
▁wasn
▁george
ding
▁farm
▁luck
▁vast
▁troub
▁obliged
▁walking
na
▁ice
▁trib
▁swift
▁season
▁cy
▁avo
▁vain
▁pecul
▁store
▁feelings
cil
uly
▁ange
athered
▁destroy
▁quarter
▁serious
bers
▁aut
▁shr
acing
▁bare
▁lose
▁touched
▁carriage
▁peculiar
▁generally
▁opportunity
oned
▁dism
▁heat
▁appre
▁hills
▁paris
▁ordinary
bb
▁building
osop
▁grad
▁mart
▁usually
aly
iant
oint
chant
▁fill
▁wear
pected
▁angry
▁pieces
▁companion
ental
▁fond
▁lines
▁sufficient
▁eld
▁sides
▁offered
ays
▁poet
▁proud
▁finding
▁accompan
▁evidently
▁scr
▁dollars
▁surprised
▁false
▁higher
▁inside
▁due
▁loss
▁regular
▁gentlemen
▁coat
itated
▁europe
▁whispered
ude
▁taste
▁glance
▁language
▁prepared
cent
▁rise
▁accompl
▁earnest
▁kingdom
▁private
▁reading
▁supposed
imate
▁shoulder
ob
uses
▁ess
▁fier
▁shop
lished
▁philosop
ners
▁rul
▁honour
otion
▁liked
▁depend
▁servant
▁univers
eds
▁dare
▁parl
▁sake
ointed
▁value
enced
▁hide
ounced
▁windows
▁kne
▁mam
▁ris
▁cloud
▁caused
▁charge
▁america
▁discuss
▁quietly
▁represent
▁amb
▁freed
▁questions
che
rid
▁matters
▁affection
go
▁bas
▁bull
▁murm
▁pride
▁opening
▁christian
▁gh
hens
▁bent
▁nose
▁perm
▁empty
▁process
▁settled
▁interrupt
▁difference
isc
aff
▁alar
▁band
▁diam
▁alive
▁offer
▁plant
▁spoken
▁contrary
▁handsome
▁cruel
▁treas
▁square
▁arch
▁dust
▁fate
icated
vation
▁growing
▁measure
▁brothers
like
▁cow
ibility
▁attract
▁ordered
▁instance
over
arest
▁bold
▁color
▁faces
▁fortun
▁thrown
▁frank
▁tremb
▁happen
▁special
▁seventeen
▁shoulders
▁kitc
▁brave
▁sixty
▁proved
▁threat
▁similar
▁gathered
eer
ille
▁ali
▁hol
▁forced
▁authority
▁organ
▁lifted
▁justice
▁streets
ify
ron
illa
▁jump
▁seek
▁skin
▁hence
ulation
lls
mond
soci
▁distur
▁memory
▁receive
▁promised
fortun
ergy
▁rode
▁seized
▁suffer
▁curious
▁margaret
con
▁unh
▁cott
▁breast
▁listened
uce
raph
▁fancy
ruction
▁indian
ades
▁blow
▁hurt
▁imagine
irt
uls
▁dav
▁por
▁unf
▁reck
▁rejo
▁prove
▁weeks
▁height
▁rising
▁liberty
▁principle
how
leep
▁deb
▁mas
▁reve
▁ignor
▁produced
▁watching
father
▁asleep
▁invent
▁worked
▁seventy
▁catch
▁affairs
▁chamber
▁hearing
▁meeting
▁progress
min
por
ails
▁cro
▁artic
▁crown
▁sacri
▁steam
▁stock
▁orders
▁tongue
▁kitchen
ky
ese
▁ing
eping
▁study
▁failed
▁moments
▁directly
▁wed
antic
▁brit
▁rocks
▁rough
▁stones
▁indians
hy
usted
▁wine
▁associ
▁support
zy
▁ende
▁pack
▁plat
▁rate
▁cases
▁coast
▁putting
▁companions
▁possession
vey
▁hom
▁pier
▁writing
▁officers
▁religion
▁servants
▁political
asm
▁gods
▁citiz
▁doesn
▁hurry
ization
▁record
▁uns
▁wid
onsie
▁bask
▁salt
▁span
▁labor
▁moving
▁talked
▁unknown
▁witness
▁ly
cher
road
▁jes
▁duke
▁aside
▁emper
▁moral
▁named
▁works
▁engaged
▁sympath
▁discover
▁satisfied
▁ow
▁pit
▁grey
▁magic
▁persu
▁cousin
▁working
itable
▁played
▁explain
▁species
▁interesting
▁test
▁ninet
▁mighty
▁nearer
▁example
▁telling
▁aware
▁innoc
▁amount
▁entr
▁fault
▁twice
▁content
▁hurried
▁laughing
▁possessed
iles
▁inhab
▁supper
▁advantage
▁ships
▁pulled
▁falling
▁movement
▁dign
▁pity
▁roof
▁forms
▁group
▁bodies
▁agreed
▁pointed
▁mistress
▁earl
▁fart
▁yours
▁arrange
▁carrying
▁tit
ocked
▁spect
▁takes
▁flower
▁majest
▁solemn
▁frightened
▁hyp
▁doors
▁terms
ips
unch
▁ble
▁memb
▁search
▁suspic
abel
▁bee
▁march
▁foreign
▁excellent
ora
rem
▁pin
▁unw
▁design
▁required
▁ep
▁busy
▁endeav
▁needed
▁sought
▁distant
▁thorough
▁vig
▁terror
▁keeping
lin
▁aug
▁huge
▁papa
ortion
▁drive
▁parent
▁preser
ulf
▁di
▁buy
▁sam
▁interp
▁despair
▁emperor
nds
pap
reg
vert
▁der
▁dur
▁mult
▁stars
▁upper
▁stairs
▁station
nes
▁milk
▁eighty
▁lovely
▁waters
▁succeeded
▁shame
ception
▁passage
▁remarked
▁instantly
eder
aries
▁flour
▁fruit
▁names
▁shown
▁yield
▁attend
▁hunting
▁splendid
▁explained
▁professor
▁confidence
oms
set
rose
▁emb
▁curi
▁afford
▁favour
▁sunday
▁evidence
▁naturally
asc
▁log
ulous
▁mile
▁rooms
▁shoot
▁soldier
lv
dle
▁rad
▁flew
iments
▁franc
▁gloom
▁events
▁fields
▁seated
▁century
▁freedom
▁smiling
▁otherwise
▁aud
▁cool
▁unto
▁claim
▁displ
▁haven
▁smoke
▁wants
▁prefer
▁diamond
▁intended
esh
▁ale
▁pair
▁union
▁served
▁weight
rant
erous
▁crit
▁cabin
▁virgin
▁clearly
▁control
▁welcome
hold
ture
▁clou
▁dogs
▁wore
attered
▁finger
▁myster
▁counten
hem
umn
▁ber
using
▁diss
▁rare
▁instr
▁slave
▁contain
▁powerful
▁advice
▁particularly
▁club
▁peas
▁calling
▁members
▁instinct
achel
▁amaz
▁sheep
▁familiar
▁relations
▁disappeared
▁env
▁pill
▁liter
ole
▁awful
▁sixteen
▁possibly
▁resolved
▁completely
▁emp
▁rag
▁cult
▁trade
▁spirits
▁advanced
▁demanded
▁occurred
▁entertain
▁considerable
▁oce
▁bore
▁proof
▁trium
theless
▁elizab
▁leading
▁superior
▁dangerous
▁importance
▁nevertheless
▁yo
▁enth
▁rule
▁size
▁birth
▁throw
▁gently
▁joined
▁travel
sc
ette
ival
race
▁wag
ishop
▁adam
▁exped
▁voices
▁equally
▁education
▁elizabeth
▁mentioned
▁neighbour
▁conditions
▁constitution
usi
▁aid
▁iss
▁pard
▁paul
▁billy
▁daily
▁drove
▁edward
▁fourth
▁horror
▁yester
▁address
▁curiosity
▁necessity
▁rat
▁gree
▁sour
▁aband
▁behold
▁powers
▁farther
▁triumph
▁yesterday
▁buck
▁drag
▁excit
▁fully
▁pictures
ker
▁fet
▁suf
▁eggs
lessly
▁goods
▁hearts
▁modern
▁actually
▁cop
▁gle
ading
istic
▁qual
ability
▁apparently
▁grandfather
▁meat
▁brill
▁trail
▁couple
▁hither
▁cottage
▁frequently
acle
▁dang
▁lies
ainted
▁acquaint
▁whenever
▁suggested
▁absolutely
rit
▁lod
▁pos
▁gather
▁paused
▁unhapp
▁excited
▁occupied
▁interested
▁imagination
bing
ford
▁oak
alous
▁hosp
▁tele
▁dozen
▁knees
▁double
▁indust
▁singing
▁dreadful
▁substance
▁remarkable
iest
▁bor
▁key
▁wes
▁wicked
▁independ
▁perceived
▁presented
▁excitement
chief
night
▁task
▁exceed
▁softly
▁undert
▁extraord
▁information
acks
▁dawn
▁minds
▁driven
▁temple
▁creatures
mas
pher
▁sex
▁card
▁dull
▁conqu
▁flesh
▁basket
▁slaves
▁anybody
▁shining
kin
▁fis
▁fold
▁hath
▁obst
▁belief
▁report
▁enthusi
llen
▁appl
▁gain
▁gives
▁newspap
▁countenance
ighed
▁holy
ternal
uments
▁flight
iot
▁cord
▁arose
▁colle
▁stead
▁affair
▁neighbor
com
inal
gment
▁worn
▁brand
▁hoped
▁papers
▁pounds
▁taught
▁capital
ara
ife
oes
acity
▁ceased
▁hidden
▁worthy
▁refused
▁sisters
▁wounded
kins
with
▁ros
asing
▁cart
▁hole
▁teeth
ication
▁regarded
▁delighted
▁dish
▁ocean
▁share
▁picked
▁regret
▁sprang
ification
▁infinite
▁satisfaction
▁ol
▁ain
▁saf
▁shel
acious
ndered
▁compe
▁distr
▁facts
▁virtue
▁message
▁science
▁proceeded
agn
den
resp
▁obey
▁points
▁wishes
▁capable
▁objects
▁officer
▁washing
▁consciousness
gers
▁mead
▁park
▁ride
atures
▁stuff
▁fighting
▁magnific
ik
nam
now
▁fox
aches
iance
▁meal
▁redu
orious
▁chest
▁clever
▁divine
▁unfortun
▁approached
ater
▁ren
iable
▁dance
▁polly
▁explan
▁bay
▁fac
▁tot
aming
▁rebe
▁stup
▁midst
▁waves
▁dreams
▁absence
▁expressed
▁everywhere
ially
▁cred
▁brief
▁depth
▁indif
▁august
▁desper
▁flying
▁relief
▁smooth
▁princip
▁betr
▁exhib
▁clouds
▁interv
▁larger
▁enemies
▁rapidly
▁moreover
▁nineteen
▁bew
asons
▁drop
▁myst
▁removed
▁willing
rop
▁od
while
▁thom
▁admit
▁begun
▁brain
▁image
▁resist
▁sooner
▁crossed
▁mistake
▁physical
▁increased
astic
ators
stand
▁cher
▁tempt
▁method
▁becomes
▁highest
for
anches
▁glory
▁wings
▁eleven
▁shouted
▁accepted
▁prisoner
arsh
iana
iber
▁coo
▁nob
▁anyone
▁choice
▁famous
▁helped
▁plenty
▁ahead
▁grief
▁extraordinary
▁sty
▁sout
▁sounds
▁adventure
▁odd
▁fled
▁forb
▁tight
▁wound
▁correct
▁popular
▁military
▁relation
▁dun
▁fan
▁fem
▁rab
asped
▁nodd
▁avoid
▁ghost
▁loose
▁skill
onsieur
▁asking
▁desired
▁foolish
▁monsieur
oops
▁seld
▁sigh
▁drift
▁severe
▁closely
▁inhabit
▁retreat
▁meanwhile
rig
▁ox
▁ug
rees
▁deck
▁trad
▁devil
▁saved
▁stiff
▁truly
▁lights
▁rushed
▁evident
▁pressed
▁entrance
▁sympathy
▁intelligence
▁wet
anges
▁hate
▁stage
▁recall
▁efforts
col
aker
mend
▁obv
iring
▁hadn
ivered
▁jesus
▁forces
▁murder
▁seldom
▁advance
▁stepped
▁constant
▁suffering
▁dig
aling
ensive
▁anger
▁impat
▁playing
▁gradually
▁comr
lection
▁marked
▁pardon
▁secure
▁thanks
▁stories
▁suffered
lo
ural
▁hut
▁arth
▁crime
▁james
▁judgment
▁religious
▁pu
▁pir
▁mont
▁invol
▁assemb
▁fierce
▁impression
ids
▁ack
▁frag
▁mour
▁russ
ushing
▁shoes
▁slept
▁majesty
▁precious
▁wondered
▁sang
▁sell
▁unex
▁yard
ription
▁arthur
▁bought
▁throat
▁burning
▁victory
▁admitted
▁national
▁accordingly
▁caut
▁keen
▁rank
▁acknow
▁experi
▁safety
▁informed
▁recollect
▁dw
izing
orous
▁rope
▁cliff
▁throughout
▁ze
▁awa
▁bishop
▁contem
▁savage
▁branches
▁established
rate
▁ara
▁type
▁worst
▁buried
▁compre
▁thrust
▁useful
▁fellows
▁portion
▁project
▁provided
▁constantly
▁lucy
▁smith
▁extent
▁pushed
▁settle
▁wholly
ols
▁wra
▁admin
▁roman
▁engage
▁supply
▁whence
▁dignity
▁parents
▁original
▁ken
▁adop
▁dying
▁stern
▁becoming
▁christmas
ped
bits
itor
▁emer
▁sylv
▁hopes
▁waste
▁plainly
▁souther
▁accident
▁concerned
▁phr
igned
oused
▁pred
▁blank
▁level
▁proble
onscious
▁arrival
▁careful
▁charles
▁escaped
▁thunder
▁somewhere
urd
room
▁bot
▁joe
▁crim
▁exha
▁sport
ustomed
▁indign
▁strike
▁stupid
▁unable
▁bearing
▁immense
▁delicate
ffe
illy
▁aim
▁alas
▁cities
▁strang
▁practice
▁thoroughly
▁et
▁fro
ville
▁pour
▁weap
▁price
▁begged
▁hungry
▁prompt
▁visible
ilst
▁hun
▁nut
▁pow
▁unus
ulated
▁hotel
▁fairly
▁member
▁theory
▁jealous
▁instruct
▁mc
▁ming
utions
▁vague
▁yards
respond
▁worship
▁governor
▁correspond
▁dan
▁nay
▁row
ivity
▁amid
▁lock
▁nerv
▁pear
▁rome
ential
▁benef
▁ended
▁kinds
▁merry
▁older
▁choose
▁kindly
▁troops
▁proportion
aunt
aval
uing
▁max
▁grim
▁convin
▁crying
▁farmer
▁invest
▁contempt
held
▁sup
conom
▁join
▁mamma
▁barbar
▁obtain
▁priest
▁wooden
▁obtained
▁prospect
▁struggle
cked
▁rig
▁lack
mother
▁british
▁million
▁friendship
sie
ailed
▁ends
▁insp
▁alice
▁indul
▁quant
▁recom
▁scream
▁patient
▁unhappy
▁inquired
▁miserable
▁returning
▁interrupted
ourse
▁gaze
▁prim
▁julia
▁econom
▁resemb
▁council
▁uttered
▁approach
▁charming
▁concerning
▁principles
▁distinguished
ett
▁psy
▁crew
▁impl
▁jose
inging
▁flood
▁restr
▁weary
▁excuse
▁remind
▁stands
▁assured
▁current
▁respons
▁western
▁unconscious
▁acquaintance
chan
chie
▁sed
▁horn
▁amuse
▁beard
▁dared
▁lover
▁manif
▁queer
▁shock
▁ninety
▁virginia
▁lux
▁nur
▁tar
▁aven
▁pink
▁tiny
▁bowed
▁knock
▁uncom
▁rolled
▁arranged
▁kindness
▁somebody
▁brilliant
▁admiration
▁comfortable
pse
▁nap
▁glim
▁leap
▁roll
▁scot
▁wing
▁bride
▁david
▁partly
▁machine
▁slipped
▁treated
▁violent
▁employed
▁household
▁listening
▁mysterious
▁explanation
stone
▁alex
▁hell
▁lone
▁wheel
▁deeply
▁maiden
▁manage
▁whilst
▁appears
▁eagerly
▁lighted
▁argument
▁features
▁profession
▁consequence
▁understanding
rows
▁mud
▁hind
atives
▁baron
▁melan
▁suppl
ceiving
▁bridge
▁carpet
▁fought
▁police
▁intention
▁stretched
▁consideration
elt
hamed
▁outl
ashing
ograph
▁elder
▁feast
▁medic
▁warri
▁compar
▁scient
▁ashamed
▁produce
▁remains
▁trembling
oe
irm
isl
rison
uding
▁hans
▁lamp
▁ugly
▁embar
▁horri
▁parliam
ha
▁lev
▁carol
▁enorm
▁greet
▁knife
▁whist
▁handed
▁hollow
▁reward
▁convent
▁figures
▁treasure
▁ga
osen
atory
▁mood
isions
▁gained
▁robert
▁stared
▁citizens
▁exercise
▁sensible
▁accustomed
▁recognized
cip
crib
icks
▁hal
urity
▁ease
▁emph
▁sher
▁cloth
▁needs
▁norther
▁showing
▁somehow
▁patience
▁approaching
fl
verse
▁cats
▁exch
▁sons
▁armed
▁nurse
▁winds
▁active
▁forgive
▁nations
▁protest
▁setting
▁described
▁voy
agnan
ology
▁gest
▁hang
▁tend
▁sugar
▁uneas
utation
artagnan
▁bringing
▁immediate
▁conscience
▁washington
▁ate
▁sank
▁trot
▁reven
▁chosen
▁engine
▁concern
▁glanced
▁southern
▁thousands
▁revolution
onn
▁gay
▁feed
▁fairy
▁spend
▁detect
▁inquir
▁legisl
▁praise
▁tables
▁managed
▁retired
▁teacher
▁district
▁numerous
▁discovery
▁inhabitants
▁apr
▁sha
choly
iture
▁mercy
▁effects
▁hastily
▁friendly
▁laughter
▁merchant
▁minister
▁assistance
▁melancholy
bor
win
fice
more
▁vic
icate
onstr
▁feared
▁genius
ointment
▁hanging
▁improve
▁require
▁conclusion
aud
aws
▁ash
board
uries
▁rent
▁scra
▁tale
▁trist
▁mental
▁rachel
▁addition
▁administ
▁interests
▁lit
▁ric
▁fare
▁lest
▁rust
▁wash
stairs
▁relie
▁causes
▁eating
▁joseph
▁nights
▁complex
▁consent
▁increase
▁profound
▁tristram
rs
anch
▁bob
▁swim
▁fever
▁novel
▁shade
▁absurd
▁squire
▁degrees
▁congress
▁distress
▁parliament
▁fee
▁lan
▁rib
▁rum
acles
▁democr
▁physic
▁emotion
▁parties
▁useless
▁sentiment
▁connection
▁lap
▁tow
▁unp
apped
right
▁dece
▁kate
▁rush
▁faced
▁kings
▁pause
▁withd
▁highly
▁sylvia
▁innocent
▁proposed
▁singular
▁magnificent
▁cas
▁reb
illing
▁haste
ilities
▁kissed
▁native
▁wisdom
▁intense
▁mounted
▁principal
▁sacrifice
▁intellectual
▁rage
▁sink
▁illust
▁actions
▁college
▁manners
▁precise
▁reasons
▁utterly
▁sleeping
▁concluded
▁permitted
isp
▁ages
▁bree
▁ruth
▁range
▁stret
▁swall
tending
▁circle
▁instit
▁nodded
▁amongst
▁feather
▁request
▁cheerful
▁murmured
▁sentence
▁surrounded
▁sufficiently
lot
cles
coln
▁guns
▁helen
▁spare
▁loving
▁lincoln
▁mission
▁privile
▁composed
▁continue
▁everyone
▁slightly
▁striking
▁establish
uten
▁bos
▁ton
rated
▁bade
▁base
▁cell
umbled
▁coffe
▁plans
▁purch
▁signs
▁prepar
▁refuse
▁deliber
▁appointed
▁extremely
▁destruction
▁ax
▁pil
▁tis
▁wolf
▁arist
▁intent
▁isabel
▁thinks
▁utmost
▁contract
▁connected
▁delightful
kind
rates
▁guil
▁proc
▁subs
▁trif
▁check
▁elsie
▁straw
▁centre
▁coffee
▁observe
▁northern
▁qualities
▁commission
mber
upon
▁bud
▁pig
▁rif
inent
▁echo
▁lawy
▁leaf
lected
▁grate
▁swept
▁tower
▁arrest
▁beaten
▁cheeks
▁condem
▁conven
▁guilty
▁follows
▁reality
▁whisper
▁directed
▁subjects
▁addressed
▁destroyed
▁unexpected
▁accompanied
ye
ris
lest
▁wil
▁grie
▁rout
▁sees
▁subm
atched
▁absor
▁flung
▁polic
▁shows
▁solid
▁market
▁wedding
▁recovered
▁acquainted
▁difficulties
ulted
▁scen
▁trip
▁vers
▁banks
▁raise
▁souls
▁easter
▁energy
▁histor
▁sacred
▁sighed
▁appreci
▁lieuten
▁affected
omp
fall
▁sar
onies
▁bath
▁bern
▁glac
▁lion
▁pipe
▁sear
▁torn
▁fleet
▁horiz
▁teach
▁domest
▁knights
▁departed
▁extended
ales
bour
▁unl
▁mode
▁angel
▁bloom
▁boots
▁gazed
▁local
▁notes
▁trial
▁transp
▁climbed
▁learning
▁confusion
ived
▁duc
umber
▁june
▁page
▁silk
▁soil
▁block
▁coach
▁style
ounding
▁fisher
▁throne
▁created
▁nervous
▁universal
gl
ads
amb
edy
ois
omen
▁err
▁plun
▁awake
▁blame
▁delay
▁ident
atherine
▁dancing
▁resumed
▁shadows
▁faithful
▁mistaken
▁commanded
▁accomplished
ka
cca
iday
iform
▁nest
▁pron
▁ruin
▁repub
▁duties
▁misery
▁preced
▁render
▁visited
▁younger
mosp
pent
▁bul
inate
uable
▁boil
▁cave
▁repro
▁atmosp
▁beheld
▁bottle
▁credit
▁cultiv
▁vision
▁shaking
▁compelled
▁convinced
▁spiritual
▁introduced
amm
rass
udes
▁clo
eenth
field
▁tied
▁fifth
▁negro
▁reser
▁official
▁announced
▁practical
▁suspicion
▁astonishment
nal
pes
▁ner
▁hers
▁pant
▁plants
▁propri
▁senses
▁strain
▁attitude
▁realized
▁republic
▁reflection
yn
ams
plex
ption
▁asce
▁craw
▁nurs
▁pian
▁trim
▁giant
▁guide
▁overt
▁shone
▁devoted
▁divided
▁nearest
▁product
▁slavery
▁expedition
▁successful
sec
ulse
▁hit
▁dise
▁tent
teenth
▁irish
▁jumped
▁pepper
▁territ
▁horrible
▁rendered
▁agreeable
▁scattered
▁cig
▁dor
▁fred
▁prec
▁dwell
▁habits
▁victim
▁quality
▁breaking
▁enormous
▁fourteen
▁afterward
▁prisoners
▁wondering
oke
mith
▁glo
itate
pleas
ground
iation
▁craft
▁frame
▁ideal
▁match
▁waist
▁modest
standing
▁alexand
▁mankind
▁masters
▁mystery
▁quarters
▁troubled
▁wretched
▁departure
▁gratitude
born
just
otes
▁flag
▁ours
▁rang
▁button
▁firmly
▁lately
▁lonely
▁ignorant
▁instrument
▁punishment
ller
tery
▁abo
▁tro
ament
▁chat
▁clos
▁fund
▁gift
▁libr
▁erect
▁folks
▁refer
▁desert
▁strict
▁compass
▁descended
▁lieutenant
lla
▁ray
isite
▁cler
▁alarm
▁leader
▁locked
▁mechan
▁rested
▁changes
▁hitherto
▁likewise
▁sensation
iven
▁ned
▁oil
▁sorts
▁spark
▁stout
▁female
▁classes
aty
end
arse
▁leis
▁liqu
▁obsc
▁sult
▁term
▁widow
▁calcul
▁empire
▁smaller
▁sounded
▁uniform
▁examined
▁inclined
▁investig
▁previous
▁separate
▁movements
▁observation
cies
gypt
icken
inity
▁chim
▁ling
▁final
▁burned
▁bushes
▁infant
▁reader
▁anxiety
▁colored
▁prosper
▁results
▁troubles
▁community
▁embarrass
▁operation
▁astonished
bre
▁ot
▁cam
▁hay
▁hid
▁nav
▁tax
house
▁folk
▁offe
▁risk
▁bones
▁egypt
▁theat
▁hunger
▁reckon
▁sovere
▁bernard
▁leisure
▁deserted
▁doubtless
▁protection
alt
rous
▁vac
▁alike
▁drown
▁gates
▁steep
▁whirl
▁poison
▁polite
▁region
▁invited
▁painful
▁properly
▁violence
add
bury
▁chin
▁dart
▁fulf
▁caval
▁guest
▁plate
▁psych
▁score
▁steel
▁towns
▁prayer
▁electric
▁forehead
▁disposition
ki
can
oul
burg
ints
umes
▁cyr
▁luc
▁gets
▁quix
▁fatal
▁flame
▁simpl
▁track
atively
▁actual
▁sancho
▁source
▁atmosphere
▁fil
▁jen
worth
▁male
▁pine
▁crept
▁harry
▁title
▁veget
▁chiefly
▁attended
▁humanity
anny
hess
▁answ
▁bark
▁blaz
▁rude
▁stat
▁
e
t
a
o
n
i
h
s
r
d
l
u
m
c
w
f
g
y
p
b
v
k
'
x
j
q
z
<unk>
<sos/eos>
