<blank>
▁t
he
▁a
▁the
in
▁w
▁s
▁o
re
nd
▁h
▁b
er
▁m
ou
▁i
▁c
ed
▁f
at
en
▁and
▁to
▁of
on
is
ing
▁p
▁th
▁d
or
▁he
as
es
▁l
▁in
ar
an
it
ll
▁n
▁g
om
▁ha
▁be
▁e
le
ic
ot
ut
ow
▁y
▁was
▁wh
▁it
ld
▁that
ve
ly
se
id
▁on
gh
ent
st
▁re
im
▁you
▁u
▁we
ce
ion
ver
▁as
et
▁his
ay
al
ir
ith
▁for
▁r
▁with
▁st
ur
▁had
ad
ght
▁her
▁an
ter
▁not
her
am
ac
▁at
▁is
oo
ould
▁but
▁she
▁se
▁fr
▁him
▁k
ain
▁me
▁so
ch
▁sh
ill
▁su
▁sa
ight
red
ct
ro
il
ess
all
ke
▁my
ore
▁they
▁de
ri
▁whe
▁all
pp
ich
▁ne
us
▁j
ome
▁by
▁li
▁have
▁con
▁this
▁were
▁which
▁ch
ul
ard
▁from
qu
▁do
▁up
ge
▁v
▁ex
th
▁said
▁one
▁or
and
▁no
pe
ab
est
ant
ation
res
▁who
▁there
▁al
ous
▁man
▁fe
very
ie
ers
ame
ra
▁them
ust
▁mis
os
▁when
art
nt
▁ab
▁their
ast
out
▁int
fe
lf
ind
▁le
ood
▁would
▁com
ate
ong
ound
▁kn
our
ist
em
ked
ap
ough
▁go
▁if
ig
▁what
▁out
ol
▁are
um
▁wor
ak
▁been
▁un
un
itt
one
if
▁ar
ive
own
▁pl
▁af
ther
▁will
ven
self
▁pr
▁then
reat
▁tr
hed
▁pro
▁could
ity
ort
▁ro
▁br
▁tw
▁ag
▁sp
▁en
ack
ost
▁qu
ure
▁some
ake
ep
au
ace
▁am
ag
▁more
▁any
▁gr
hing
▁into
ved
ck
▁tim
▁did
▁cl
ond
▁your
ry
op
▁can
▁ad
▁other
ose
el
▁than
ance
▁very
▁bo
way
able
▁im
ine
▁now
ies
▁loo
ass
cc
▁us
ittle
▁like
▁little
▁bl
▁dis
ade
other
ite
are
▁day
ence
▁te
▁about
ought
ide
urn
▁how
▁after
▁time
▁over
ment
ice
wn
pt
fore
pl
ble
▁know
ove
ish
ree
▁fl
▁again
▁per
ci
▁too
ally
▁upon
▁well
nder
ving
▁see
▁has
▁great
▁our
ress
▁hand
▁pe
▁only
ars
ud
ather
ered
▁two
ied
▁say
ink
▁po
ount
ty
▁every
ire
▁app
ile
▁should
▁down
▁made
age
▁miss
▁before
▁thr
▁old
ings
▁its
▁mar
ick
▁good
ue
▁long
ions
tain
ward
per
ft
▁str
ang
▁such
ves
▁mu
▁these
▁pre
▁way
ful
een
▁even
▁off
ull
ated
▁ind
ious
▁came
led
ild
▁bec
▁under
▁fir
▁never
▁sm
▁mister
▁co
ness
▁much
▁sc
▁part
act
▁where
▁ey
▁rem
▁back
▁must
orn
▁gl
ber
ouse
ng
ect
▁just
▁cont
▁bet
▁ob
ans
▁cr
▁come
od
▁res
▁thought
▁spe
▁own
cl
▁think
ord
▁des
anc
▁may
ff
▁look
▁first
▁fo
▁men
ach
▁car
▁seem
oss
ried
▁might
ary
▁ho
ily
llow
▁comp
▁ye
▁himself
ise
▁beg
▁fa
▁house
▁let
▁through
▁here
ip
ath
▁jo
▁went
iz
▁imp
▁bel
▁sw
ave
▁sl
ted
▁get
▁new
ady
▁em
▁head
▁pass
omet
ren
▁att
ater
▁pres
▁ent
▁eyes
▁make
ared
▁life
ened
▁most
▁without
▁those
▁don
▁many
▁somet
▁op
▁away
▁wom
▁call
▁turn
▁acc
▁lo
▁young
▁cons
▁being
less
arm
ause
▁still
ory
ign
▁last
▁night
▁found
ks
ne
▁comm
▁nothing
ople
ons
▁tell
▁while
ors
▁people
ible
ase
▁though
▁ret
hes
ition
aking
▁yet
les
▁right
▁word
ian
▁three
pect
irl
▁ser
ens
ark
gg
▁put
▁room
▁saw
▁take
▁happ
ix
▁asked
▁count
▁hu
▁ear
fect
iv
▁child
▁nor
▁same
▁ac
▁missus
▁nat
ub
▁want
▁ever
get
▁heart
alk
▁prin
▁stre
ew
igh
▁inst
ways
thing
▁another
▁arm
▁left
▁shall
▁rep
ult
▁father
ertain
te
air
▁cour
▁dist
▁girl
▁end
ished
▁rec
▁once
ations
▁place
▁pers
▁face
ict
oth
▁took
▁seemed
iend
▁la
▁mat
▁always
▁supp
ject
▁love
▁work
▁el
▁gen
▁cap
▁gre
▁mom
▁moment
orm
▁sec
▁ple
ling
vent
▁why
▁friend
ower
▁wr
▁told
▁eng
▁mind
ently
▁looked
▁inte
ange
▁heard
▁king
aut
▁soon
pped
sel
ys
▁sat
cess
▁light
sw
▁set
▁poss
▁mo
▁appe
ia
▁mother
▁because
int
▁vo
lt
▁sur
▁things
▁answ
▁yes
▁something
ual
land
aught
av
▁rel
amp
▁far
man
▁dif
▁wa
▁unc
▁going
▁sub
▁give
ook
▁act
▁feel
▁find
ters
▁ass
▁reg
▁world
ced
ched
▁rest
dd
ever
▁mon
▁door
▁ma
▁gu
▁gi
▁wind
▁dre
uck
▁inf
▁home
▁return
▁ord
ical
▁thing
▁certain
▁ke
▁belie
▁hands
iver
▁near
ank
ial
▁form
▁exp
▁knew
▁woman
▁bre
ither
ail
▁each
▁del
▁against
cept
▁having
▁few
▁hard
ined
ool
▁bar
ired
▁cle
▁began
ting
▁kind
aps
▁char
▁better
ier
▁sil
▁sir
ited
ning
▁side
ner
▁unt
▁years
▁follow
ru
▁pur
▁enough
▁hum
▁eight
▁got
▁four
▁occ
▁pat
▁tre
▁care
▁ph
iness
▁inc
og
ple
▁disc
rest
de
ten
▁gener
▁sn
▁add
▁done
ock
▁betw
▁morn
▁seen
gether
▁min
ss
▁repl
▁whole
▁conf
▁called
aken
ully
most
▁beaut
▁sin
ndred
▁fore
▁hundred
▁bu
owed
▁dra
▁water
be
ying
▁between
so
▁morning
▁beh
▁ins
ating
▁felt
▁open
ps
▁hour
oub
ular
ures
▁pleas
▁white
▁toward
▁che
▁gra
▁inter
ised
▁hel
▁wond
▁herself
ung
ph
▁six
▁ter
▁oh
ained
▁half
▁inde
▁land
▁ste
▁among
▁turned
▁however
▁name
haps
osed
▁tra
▁ref
ering
▁also
ows
▁perhaps
ib
▁fam
▁mas
▁replied
ret
uth
▁cor
▁sle
▁does
ale
eter
▁quite
oud
▁adm
▁poor
▁myself
selves
ross
▁sim
▁adv
▁keep
▁course
▁sk
ents
▁fall
▁voice
xt
ces
▁small
▁both
ason
▁sent
▁sure
▁hor
▁gave
up
▁war
▁bro
▁col
▁whom
enty
iet
▁high
vel
▁ev
aint
▁cur
▁days
▁almost
▁less
▁contin
not
▁aw
cei
▁sy
ates
▁par
ute
▁thir
▁person
its
▁best
▁ed
▁mer
▁need
▁stand
ton
▁mean
▁together
▁lar
ately
▁power
▁words
fort
▁met
▁sou
▁until
uring
▁god
rent
hn
▁bus
ged
▁since
▁lay
▁fact
▁feet
▁anything
▁tri
▁next
oney
ured
▁dark
▁stood
▁present
▁brought
▁underst
ane
ense
▁black
▁vis
ife
atch
dden
ned
▁round
ash
ins
▁wood
▁along
ction
ressed
▁others
▁five
▁read
iled
▁sun
▁play
ued
▁bod
▁air
▁full
app
▁sudden
▁dr
nded
used
▁imm
▁looking
▁john
▁quest
▁serv
oy
fully
▁money
▁rather
▁dear
▁doct
▁hear
▁twenty
▁believe
▁
e
t
a
o
n
i
h
s
r
d
l
u
m
c
w
f
g
y
p
b
v
k
'
x
j
q
z
<unk>
<sos/eos>
