<blank>
▁t
he
▁a
▁the
in
▁s
▁w
▁o
re
nd
▁b
▁h
er
▁m
▁i
ou
▁c
▁f
at
ed
▁and
en
▁to
▁of
on
is
▁d
ing
▁th
▁p
▁he
or
▁l
es
▁in
ll
it
ar
as
an
▁n
▁g
om
▁be
▁ha
▁e
le
ot
▁y
ut
ow
ic
▁wh
▁it
ld
ve
▁that
ly
▁was
id
se
st
▁on
gh
ent
▁re
▁you
im
ce
▁u
ver
ion
▁as
et
▁for
ay
▁we
▁his
ith
al
ir
▁r
▁with
▁st
ad
ur
ght
▁an
▁her
▁not
▁had
▁is
ter
her
ac
am
▁at
oo
▁but
ould
▁she
▁k
▁se
▁sa
▁sh
▁fr
▁him
▁so
ill
▁me
ain
▁su
ight
ch
red
ct
all
ro
ke
ess
il
ore
▁de
▁they
▁my
▁whe
▁all
ich
▁ne
ri
▁by
▁have
ome
pp
▁this
▁li
▁do
▁con
us
▁which
▁ch
ul
qu
▁j
▁up
▁said
▁from
ard
ge
▁or
▁v
▁one
th
▁no
▁ex
▁were
▁there
pe
and
est
▁man
▁who
ble
ant
ie
▁al
res
ous
ust
very
ation
▁fe
▁them
lf
▁when
ind
nt
ame
ra
▁go
ers
ast
fe
ood
▁kn
▁int
ist
art
▁are
out
▁would
▁le
os
▁their
ong
▁what
our
▁if
ound
▁com
▁ab
▁out
▁wor
em
▁will
ak
▁mis
ate
ol
um
un
itt
ough
ked
ap
ig
one
▁been
own
ive
▁then
▁br
ven
if
▁ar
▁tr
self
▁pl
▁ro
ther
▁pr
reat
▁un
▁af
▁sp
▁qu
▁pro
ity
hed
▁tw
▁ag
▁could
ost
ace
ort
ure
ake
ack
▁am
▁any
▁some
▁your
▁more
▁can
au
▁tim
ep
▁en
ag
ck
▁cl
▁into
ry
hing
▁now
nder
are
▁very
▁gr
el
ose
▁loo
▁bo
ved
op
▁other
▁did
ance
▁than
ittle
▁little
ine
ies
way
ite
▁like
ide
ass
▁bl
able
▁lo
urn
ought
▁know
other
▁time
▁im
▁dis
▁us
▁co
fore
▁te
▁how
ence
▁day
▁ad
ade
▁about
ice
▁see
▁over
pt
cc
▁too
ink
▁fl
wn
▁great
▁after
pl
de
▁per
▁again
ment
▁upon
▁hand
ab
ree
▁has
ish
ci
▁only
ally
▁well
▁should
▁po
▁mar
ress
▁say
▁good
ather
▁two
ings
▁pe
ount
▁our
ire
ving
▁down
ars
ert
we
▁before
ile
▁app
ves
▁every
▁its
▁old
▁thr
▁mu
▁made
ick
ied
▁long
te
age
ft
▁where
▁never
ang
▁pre
▁must
▁sm
▁such
ull
ful
▁str
ions
▁sc
▁off
▁came
ious
ue
▁miss
ward
▁fir
ild
▁even
▁under
▁these
act
▁come
▁part
▁fo
ated
ness
▁rem
▁bec
ord
▁may
ty
▁think
▁much
per
▁mister
▁way
led
orn
▁ey
▁let
▁cont
▁gl
▁thought
▁look
ect
▁spe
▁back
ise
▁bet
▁ye
ady
ach
ans
▁just
▁first
▁here
ren
▁ho
▁des
▁ob
▁own
ried
ud
ary
▁went
▁himself
▁mo
cl
▁men
air
ave
ath
▁sl
ff
co
▁cr
llow
▁res
▁might
ily
▁seem
int
ip
▁beg
ouse
anc
▁wat
▁through
▁comp
ber
▁car
▁away
▁em
▁get
▁imp
▁head
oss
▁don
▁bel
▁life
▁without
▁pass
▁most
▁make
ened
▁cons
▁som
▁turn
av
ng
▁shall
▁those
▁eyes
▁pres
▁acc
▁house
iz
▁somet
▁jo
▁still
▁call
hes
▁op
▁night
ause
▁wom
less
▁last
ks
ared
▁comm
▁nothing
▁ent
▁tell
▁new
▁take
ign
▁being
▁many
▁word
▁found
ons
▁ret
ase
▁while
▁ear
▁att
ory
▁saw
ix
▁put
oth
ne
▁ser
▁peop
iend
▁wr
ark
▁young
dy
aking
les
▁la
▁once
ens
▁count
pect
▁friend
▁people
ible
ors
▁mat
fect
ince
▁room
ered
▁three
▁yet
ail
▁same
▁father
▁right
▁child
igh
▁cour
▁another
▁place
ult
iv
▁though
ition
▁ind
▁want
▁nor
▁far
▁king
▁end
▁happ
▁heart
▁face
▁ever
▁nat
get
thing
▁took
▁hu
▁love
▁dist
ew
ever
▁arm
ian
▁inst
man
▁work
▁light
▁set
▁ple
ict
▁looked
▁char
▁missus
▁ac
▁mind
▁inte
▁rep
▁asked
▁supp
cess
▁yes
ently
▁left
ertain
gg
▁ke
ished
▁pers
▁things
ub
ways
▁mom
irl
alk
▁sir
▁moment
▁wa
ations
▁sat
sel
▁find
ia
ower
rew
▁world
ject
vent
▁give
▁gen
▁cap
so
▁gu
▁sw
▁why
lt
ling
▁always
▁mother
dd
pped
▁soon
▁ans
▁act
▁form
▁el
▁heard
der
ret
▁thing
▁seemed
▁something
ange
▁door
▁sub
▁girl
ced
ither
▁appe
▁wind
▁mon
▁dif
▁because
ss
▁told
▁going
orm
▁home
▁war
ained
▁got
aught
▁gi
▁god
▁eng
▁sur
land
ning
▁hands
▁woman
aut
▁vo
▁poss
▁follow
▁feel
ched
▁rel
ph
ple
ical
▁return
ook
▁boy
▁knew
▁reg
▁each
ner
▁rest
▁kind
▁ma
▁exp
▁cle
iver
▁oh
▁hel
▁sil
ual
▁water
ting
▁del
▁ass
▁inf
▁wo
▁bre
▁certain
▁against
▁conf
cept
▁belie
▁hard
row
▁unt
▁years
▁quite
iness
▁near
▁ph
ined
▁side
▁hor
▁four
ired
ters
ool
▁few
ier
rest
▁done
most
▁half
▁che
▁better
ited
▁tre
▁min
ock
ps
▁also
uck
▁care
oub
▁began
ully
ised
▁having
ru
▁enough
▁gener
▁dra
▁seen
▁lady
▁pur
aps
ott
▁hum
ross
aken
ying
▁ter
ank
▁inde
▁called
▁hour
ial
ason
▁beh
▁does
▁whole
▁morn
▁ste
▁pleas
▁turned
ib
▁ref
ense
▁ins
ream
▁occ
▁course
gether
▁both
▁gave
uth
▁cur
▁sou
een
▁read
▁add
ween
▁col
selves
▁between
▁among
ular
▁beaut
▁keep
▁inc
▁poor
▁sure
▁morning
▁white
ged
▁dear
▁name
▁toward
▁whom
▁small
▁sk
▁repl
▁lar
ute
▁felt
osed
bo
ating
▁open
▁six
▁myself
ond
▁however
xt
▁bu
▁herself
▁inter
▁high
aint
▁fore
ction
▁stood
▁hund
▁tra
▁hundred
▁ev
▁sent
aster
▁sim
ife
▁show
▁round
▁point
▁almost
▁days
▁words
vel
▁gra
ale
▁dr
▁gre
▁eight
ents
dden
ates
▁bus
▁fam
ces
▁land
▁stand
ung
▁ed
▁sun
haps
ird
▁mean
▁perhaps
ned
ures
iet
▁since
▁sudden
▁sle
▁best
▁dark
iss
▁replied
▁voice
▁bar
▁met
▁till
▁anything
▁until
▁underst
its
▁black
oud
aring
▁bro
▁looking
ins
▁cried
amp
▁prin
▁fact
▁next
▁less
▁law
▁lay
up
▁power
▁prop
▁brought
not
enty
ately
rent
▁country
▁help
med
▁vis
▁sn
als
▁air
▁quest
▁together
fully
▁spo
▁adv
▁person
▁need
▁use
▁indeed
▁contin
oney
ows
▁present
▁gent
▁par
▁unc
ured
▁run
▁full
▁aw
▁rather
▁ide
nded
▁feet
tain
▁cond
▁sy
▁lat
be
▁fall
du
▁five
eter
▁har
▁fin
cei
▁bed
▁mil
▁doct
▁interest
oc
▁matter
▁gone
ressed
▁lord
▁wife
▁pat
▁es
fort
ering
▁serv
▁death
oubt
▁adm
▁taken
ash
▁hope
▁art
▁others
▁tri
▁talk
▁ext
az
▁dire
ief
▁along
▁cannot
▁speak
▁themselves
ove
pr
▁lau
▁cou
▁bes
ten
uring
▁pol
mb
▁large
▁gentle
▁mor
▁cat
▁fire
app
vers
ention
▁swe
▁thus
▁sec
▁play
ield
▁real
ments
ains
▁prom
wered
ousand
▁reason
▁thousand
iting
akes
ached
▁money
▁brother
▁dep
▁behind
ont
▁true
▁remem
▁children
oy
▁answered
used
▁sound
▁whose
ison
▁wood
▁twenty
od
ene
ants
sh
▁wonder
ably
itu
▁believe
▁inv
▁dec
▁thou
ton
▁ra
ued
▁hold
▁doubt
▁ele
▁suff
▁hon
▁hear
▁passed
▁cor
▁opp
ities
▁diffe
me
▁rec
▁nature
▁mer
▁alone
ided
▁sing
lic
▁dead
ken
aces
▁fur
▁pri
▁gold
▁hur
▁close
og
▁red
▁doctor
▁start
ances
▁ground
▁bur
▁sea
ets
▁ask
ery
▁son
▁strong
▁leave
illed
wer
ept
▁compan
cy
▁obs
▁ce
ides
▁mount
tle
body
▁fell
cond
▁sign
▁given
▁fair
ane
▁ir
iful
▁deep
▁therefore
▁body
ys
▁short
fic
▁often
ceed
▁pap
unt
▁tem
▁earth
▁master
▁fort
bed
▁second
▁horse
▁mad
▁fa
▁stre
idd
gth
owed
ually
vered
▁const
▁pa
▁ten
▁dro
▁ca
▁order
▁cir
▁fif
▁wish
▁eas
hen
aim
▁really
read
ceived
▁fear
▁spir
▁abs
▁ill
▁spr
▁list
aced
osition
▁question
▁understand
▁chr
▁wall
anger
▁coming
▁aff
▁everything
ider
aughter
ching
▁above
▁prince
▁expl
ready
▁least
▁step
▁ru
▁already
▁itself
▁used
▁reco
▁necess
▁suddenly
hn
ger
ister
▁around
▁case
▁general
▁num
▁wal
▁soul
▁mag
▁evening
ized
▁known
▁lad
imes
▁mus
▁lear
▁quick
▁sch
▁whether
ific
men
gn
▁within
▁live
▁times
▁expect
▁captain
▁sort
▁women
▁friends
▁john
▁bring
▁dri
▁circ
▁sum
iled
vern
▁table
▁meet
▁returned
▁held
▁state
▁exc
▁big
▁perfect
▁else
▁obser
▁lea
▁during
▁hus
ident
▁beautiful
▁says
▁town
▁clear
▁either
ted
▁sight
▁cal
▁lost
▁foot
▁kept
▁cut
▁ran
▁means
ience
▁prof
▁sleep
ety
tered
▁past
▁dream
▁fellow
here
▁became
▁pret
ages
ution
▁bad
▁disc
▁object
▁making
▁low
▁mist
▁strange
▁towards
▁dev
▁year
▁manner
▁human
ient
ught
old
ines
▁sever
ches
airs
▁est
▁city
▁sometimes
▁dem
ility
▁ann
▁rose
▁walk
▁pal
▁road
gs
▁ready
lish
▁stra
cious
ians
iew
▁cold
▁corn
iously
▁bat
mer
cri
owing
bert
br
lled
▁truth
▁squ
▁pie
▁thy
▁didn
▁ship
▁soci
▁thir
▁business
▁bit
▁mur
lly
▁subject
▁won
▁appro
▁river
▁answer
▁sto
▁appear
▁free
rie
ingly
▁family
▁arms
▁excl
▁hair
ern
ony
▁ut
▁jud
▁cast
ape
▁become
▁letter
ouble
▁christ
ote
▁possible
▁different
▁val
ffect
▁several
▁lead
▁express
▁natur
li
▁fine
▁forg
itting
▁arri
▁sus
▁idea
▁blood
ah
▁quiet
oon
▁glad
▁able
itted
rence
▁consider
ster
▁charac
▁tou
▁begin
▁eye
▁win
▁equ
▁across
▁except
band
▁chur
▁story
▁pen
eth
ative
llect
▁fre
▁diffic
▁partic
▁surpr
▁window
▁direct
▁prov
▁disco
▁grand
▁cent
isf
ey
teen
▁conc
aw
▁hen
▁soft
▁flo
▁sor
by
▁wild
▁effect
▁sold
▁longer
▁pub
▁followed
▁cross
ased
▁govern
antly
ards
▁husband
▁respect
ts
▁suppose
▁comple
▁hast
▁taking
▁ap
▁rich
▁happy
▁sal
▁creat
▁heav
une
▁stay
▁thee
▁daughter
▁du
▁bird
▁spoke
▁requ
▁wee
▁ve
▁mere
▁green
alth
▁din
▁anim
▁possess
ny
empt
▁gard
anged
▁reached
▁pretty
ination
▁appeared
ov
▁exist
▁common
▁opened
▁remember
▁slow
utes
▁book
ley
ames
▁hea
▁imag
ract
▁tom
▁occas
king
▁rus
ices
▁saying
ump
ms
▁fav
ising
▁exper
▁bright
▁break
▁accord
▁satisf
▁month
▁sense
▁scar
▁lu
▁succ
▁secret
use
tern
▁stri
▁continued
▁carried
nding
eric
▁cry
▁church
▁certainly
▁wanted
▁spirit
▁command
▁move
▁sens
oun
▁tree
▁dest
ham
cul
▁rock
ots
▁account
▁sweet
riage
▁decl
▁purp
▁ought
outh
▁def
▁eat
▁prep
▁street
owers
▁esc
▁draw
▁breat
▁stud
medi
▁character
ime
▁school
▁regard
▁feeling
▁heaven
ement
itude
▁sad
▁worth
▁mot
▁trans
▁hill
aimed
▁dut
▁smo
▁disapp
▁hung
▁blue
▁pain
ury
▁quar
▁hot
ney
▁delight
▁english
idence
▁view
▁produ
▁dress
▁laugh
umb
▁bra
son
▁seven
▁mill
▁port
▁hat
▁fast
▁lived
▁success
▁neither
▁fight
▁terri
▁princess
▁court
▁div
▁marg
▁self
▁immedi
▁hours
▁var
ze
▁ang
▁sol
▁carry
▁exam
▁import
to
▁tried
ric
▁disp
ledge
▁uncle
▁entered
▁further
▁len
▁cause
ask
▁forward
▁ge
▁none
▁danger
▁det
▁pay
▁tor
▁front
▁offic
ror
▁particular
▁deal
▁led
▁added
lect
▁acqu
▁chief
▁happened
▁walked
iar
▁prot
▁eff
▁bene
▁maj
▁ord
▁public
▁pray
▁later
▁alth
▁joy
▁fig
▁affect
▁although
▁sho
▁prob
ening
gr
▁comfort
day
iam
resh
uct
ead
ality
▁fail
▁number
ship
▁yourself
▁mem
▁doing
▁ah
▁seems
▁living
side
oof
arent
▁shad
▁bey
▁field
▁beyond
▁desp
ize
▁received
▁queen
▁boat
▁garden
inct
▁mouth
▁party
▁americ
▁je
▁line
▁bear
▁visit
▁gentleman
▁phil
▁entire
▁laid
ism
rig
▁clot
▁hall
▁age
▁repe
raid
▁sister
irt
▁occasion
uff
▁nearly
ously
▁accom
iling
▁whis
▁trees
iff
▁vi
▁lab
ming
wards
▁eighteen
▁prison
bit
ones
anced
▁forth
▁princi
ilt
▁early
▁thinking
▁tal
▁enem
ug
▁vill
▁try
▁minutes
▁da
▁chance
▁england
▁crow
▁med
▁mary
▁cre
where
▁anx
▁afraid
▁late
▁smile
▁fle
lling
▁pict
▁wait
▁news
▁stren
▁wis
▁aunt
▁seeing
▁pleasure
iment
oint
▁neigh
▁super
▁glass
▁miles
▁trouble
rench
▁bill
▁silence
▁rob
▁exclaimed
pend
ply
▁plain
▁drew
▁faith
els
▁neighb
▁chap
gy
aret
▁change
▁purpose
▁necessary
▁standing
▁pract
▁mine
▁deter
▁heavy
▁sevent
▁inqu
▁top
fered
▁shar
icked
▁caught
▁bell
▁hardly
▁natural
▁bott
ives
▁circum
▁stopped
wh
▁fing
▁auth
rupt
▁wit
ounded
▁grew
▁opin
ament
aining
▁knight
▁av
▁instead
mon
▁island
▁length
ls
▁ago
▁hig
ush
uc
inary
▁loved
head
ically
▁third
▁straight
▁priv
▁determ
form
the
▁inn
ues
▁thor
▁beauty
ining
▁peace
ior
ler
pper
▁cra
ancy
asp
▁infl
▁convers
ma
rage
▁conv
▁besides
▁thirty
▁den
▁dog
ored
▁sitting
▁attention
ager
▁bab
▁rom
▁hist
tend
▁position
▁inform
aged
▁hop
▁comes
▁lie
▁pull
▁rid
▁please
iter
ustom
▁build
▁grace
▁french
▁ast
▁resol
▁whatever
▁struck
▁force
▁girls
▁scarce
▁chair
ghed
▁wrong
▁knowledge
hood
▁rap
▁fifty
▁attempt
▁ver
▁south
▁fat
▁thoughts
▁burn
▁watch
▁crowd
▁arr
▁box
▁getting
▁save
▁thick
▁slight
▁dinner
▁enj
▁die
▁company
▁rev
▁class
▁exact
▁plan
▁immediately
iers
usion
▁maid
▁treat
ius
pping
▁born
▁incl
▁drink
▁meant
iced
▁forest
▁sugg
▁tears
▁slowly
▁boys
ists
ndon
▁lim
▁fool
▁suggest
▁compl
▁result
▁saint
▁accept
▁died
ceive
▁stone
▁post
▁fright
▁ty
▁author
▁belong
▁paper
cient
▁warm
▁enc
▁youth
▁beside
▁send
▁bound
▁conse
▁quickly
▁tone
▁er
▁vict
▁leg
▁jour
▁imposs
▁brown
▁contr
▁fix
ified
▁camp
val
ics
▁desire
▁filled
▁moon
▁london
▁circumst
▁snow
▁distance
▁obl
ging
▁lips
ift
▁north
▁forget
▁makes
▁placed
▁mid
▁pock
▁margaret
ooks
▁food
ann
▁floor
ries
▁sac
▁hors
itions
▁strength
▁spring
▁id
▁ball
▁following
arch
▁descri
▁jack
▁remained
▁laughed
bs
▁safe
▁grow
itten
▁broken
▁nar
ively
▁profess
aded
amed
oured
▁coun
▁und
▁depart
▁government
ats
▁viol
▁easy
▁waiting
▁knows
▁horses
▁proceed
dom
ges
▁thank
▁dread
erv
▁anne
ented
▁piece
▁gall
ugg
▁une
▁shout
▁gaz
▁complete
▁neck
dered
▁van
▁guard
asure
▁wide
▁started
ope
▁doll
▁sail
▁palace
cially
isted
ires
▁lift
ences
▁ger
acy
▁talking
▁imm
let
▁service
▁impossible
▁week
und
▁deg
▁mess
▁fun
▁stop
▁gar
▁fresh
▁difficult
▁society
▁hy
reme
▁effort
▁grave
well
▁weak
▁proper
aching
▁incre
▁demand
▁army
▁shut
iddle
▁cloud
▁corner
▁nine
▁turning
▁sky
ivid
▁mass
▁below
uss
▁sit
▁single
▁fly
▁opinion
▁aftern
▁trust
▁lang
▁occup
▁recogn
▁gun
▁outside
oom
cell
ises
▁nin
▁beat
▁kiss
uit
▁couldn
▁evil
▁appearance
▁west
par
▁mention
▁running
arer
▁ant
▁bank
▁conn
▁conversation
pic
▁breath
▁greater
▁espe
ency
▁showed
▁winter
▁fash
▁clothes
▁morrow
ases
▁coll
▁arrived
▁sand
▁music
ork
▁kne
▁peter
cial
hered
▁married
▁presence
▁emb
▁pun
▁usual
▁wished
vere
▁mark
▁suffic
▁neg
▁former
▁giving
ushed
▁eager
▁probably
▁gro
aped
▁pet
▁sym
▁battle
itation
▁simple
▁mountain
▁hunt
▁months
▁expression
▁covered
▁afternoon
▁event
▁relig
rief
ories
str
▁moved
▁states
▁chapter
▁cab
▁shore
▁concl
▁pop
▁silent
▁loc
▁speaking
gar
▁instant
▁beginning
amb
▁phys
▁occur
▁tur
light
▁polit
▁stream
▁easily
unity
▁remark
ald
▁pale
▁sick
▁z
▁remain
▁enjoy
▁influ
▁duty
▁twel
▁twelve
▁pleasant
▁path
▁figure
cho
▁fashion
uel
▁vol
▁raised
▁scarcely
che
▁star
▁terrible
▁conscious
▁minute
▁kill
▁leaving
▁fut
▁marry
▁threw
olog
yal
▁expected
▁tall
▁forty
▁according
ature
▁sword
rib
▁guess
▁oblig
▁flowers
zz
inal
▁stick
▁trying
▁iron
▁rapid
▁ben
▁places
▁learned
▁especially
▁killed
▁office
▁books
▁isn
ipped
ulty
orted
▁silver
▁purs
▁surprise
▁direction
▁entirely
wise
▁cho
▁bread
ech
▁tender
▁consequ
orth
▁written
ibly
▁exh
▁write
▁ladies
▁condition
mit
▁action
eness
pered
▁suc
▁happiness
ounds
▁enter
▁note
aled
tering
jo
▁fal
oop
▁langu
▁golden
▁decided
▁wonderful
ume
▁geor
▁unless
▁perfectly
fer
▁shook
ndered
uous
▁broad
▁steps
▁closed
atic
▁merely
tended
osing
idered
▁enemy
▁history
▁wise
▁latter
▁understood
▁jew
▁simply
▁sole
▁spot
ishing
▁wouldn
onel
▁middle
mn
llig
▁admir
ital
▁shot
▁conduct
▁pit
▁sav
▁tast
▁changed
gan
▁reply
fast
▁board
▁succeed
▁bow
▁summer
▁grass
retched
▁experience
sy
gress
uted
ax
io
▁afterwards
▁lying
▁repres
▁finally
▁marriage
▁situ
▁broke
▁fortune
▁fit
▁observed
▁sharp
▁flat
▁orig
▁trave
▁journey
▁mir
osp
▁lean
▁excell
▁persons
▁earn
▁calm
▁faint
unk
▁clim
▁acquaint
▁listen
olute
▁beneath
ouses
▁ring
▁pocket
ests
▁oper
cience
▁lives
▁repeated
bered
▁tail
▁passion
▁escape
▁fish
▁ven
clock
▁gate
▁mut
▁prev
▁madame
▁lou
▁famil
▁becom
▁reach
▁sorry
▁health
▁empl
▁allowed
oses
ples
▁dick
▁ign
ivers
▁bless
bing
▁furn
▁temper
semb
▁firm
ission
▁rain
▁bitter
▁ban
▁future
▁strugg
▁spite
ina
▁cand
umed
▁passing
kes
▁separ
hel
iding
▁sett
▁circumstances
▁pleased
▁loud
▁magn
▁connect
▁letters
▁civ
▁kit
idden
▁nice
▁disappe
▁darkness
▁tea
come
▁yellow
▁important
▁presently
▁walls
▁spread
▁dressed
▁discovered
▁apart
▁worse
▁wand
▁nation
▁legs
▁delic
my
▁blind
▁remar
▁dim
▁spec
▁employ
▁dam
▁rub
otten
idently
▁dry
▁cost
▁virt
▁sorrow
ec
rel
urs
velop
▁game
▁opport
▁absolute
▁heads
▁exactly
oved
▁ears
▁host
▁beast
ference
▁subst
▁dropped
▁knowing
▁chee
▁bag
▁determined
▁ves
▁seat
▁smiled
▁creature
ils
▁existence
▁resp
▁conce
▁major
▁promise
roy
▁storm
▁notice
▁concer
▁motion
▁pros
ishment
▁protect
▁cous
que
anging
▁learn
▁press
▁arg
▁fixed
▁leaves
ours
▁prevent
▁vent
▁assist
lend
ument
▁bottom
▁nobody
▁hes
▁pick
▁individ
iod
iety
▁intellig
acked
▁houses
ashed
erable
▁considered
▁dom
action
▁castle
▁empt
▁stir
▁suit
▁advant
▁disg
ancing
▁utter
▁perform
rect
▁tired
ruct
istr
▁habit
zen
▁cheer
▁birds
▁estab
▁frequ
▁wrote
idge
▁stro
▁dar
▁ones
▁luck
▁drawing
inite
▁vall
ell
▁honor
▁pra
▁impress
▁propert
▁song
▁speech
▁clean
ays
▁pure
▁various
▁shadow
▁mal
▁noble
▁village
▁paid
▁splend
▁ur
rodu
▁allow
▁narrow
▁declared
▁breakfast
▁wear
▁extra
▁somewh
▁believed
▁train
▁aston
▁judge
▁extreme
▁somewhat
▁individual
ayed
▁moder
▁ham
▁agree
▁lower
▁parts
enth
▁jane
▁royal
▁confess
go
▁period
▁remembered
pan
▁reflect
▁cott
▁animal
▁custom
▁greatest
na
▁revol
▁scene
iny
▁drawn
▁soldiers
▁influence
▁difficulty
▁mel
▁ways
▁surely
▁desert
▁likely
▁ancient
amber
itary
▁angry
▁looks
ator
▁sake
▁holding
▁evidently
▁inj
▁jul
▁laws
▁proud
▁colonel
▁shr
▁sin
▁courage
anted
▁harm
▁apparent
nes
▁comb
▁mort
▁picture
▁mod
ring
gged
▁troub
▁spoken
ision
▁burst
▁watched
esty
ption
▁shop
▁anxious
oose
▁scr
under
▁finished
▁east
▁ideas
▁inside
▁fifteen
otion
▁agre
▁dism
▁civil
▁george
▁henry
▁fol
▁touch
▁space
▁attack
▁fallen
▁formed
▁goes
▁surf
▁thin
rer
iently
ium
▁bal
▁baby
▁social
▁appre
▁cover
▁private
▁gentlemen
▁carriage
▁advent
▁waited
▁ourselves
uded
▁speed
cise
itive
▁servant
▁wine
▁noise
▁pecul
▁vessel
▁william
▁grou
▁tong
▁obliged
▁windows
▁lot
▁commun
▁ice
erial
▁favor
▁impro
▁jim
▁meth
▁vain
▁peculiar
▁grad
▁walking
▁carefully
▁noticed
▁everybody
▁pot
▁forgotten
▁thro
▁elect
▁shoulder
▁stranger
▁glance
▁higher
▁promised
▁bod
▁lose
▁property
het
▁fier
▁hero
▁main
▁tremb
▁cup
▁france
▁earnest
▁quietly
af
▁american
▁generally
▁serious
ral
iction
▁offered
▁ine
ables
▁animals
▁handsome
▁shoulders
▁sla
▁dust
▁symp
▁built
▁personal
▁interrupt
▁cow
ague
iant
osite
▁poet
▁grown
▁distinct
▁affection
stem
▁mam
▁edge
▁wel
▁heat
▁contro
acing
▁desce
uly
cher
▁unk
▁fancy
▁murm
itated
▁skin
▁spent
▁touched
▁pier
▁wasn
▁faces
▁pieces
osity
▁jump
andon
arily
nday
▁develop
▁san
▁whispered
ingu
itch
▁fond
enced
▁butter
▁surprised
oted
▁coat
▁chamber
▁intellect
▁mountains
wood
isters
▁educ
▁race
▁false
▁german
ob
hip
▁system
▁eld
onsie
▁bare
how
▁fan
▁rag
▁defe
▁wealth
aked
▁lin
▁fingers
key
over
acher
▁dare
▁opportunity
▁pi
▁arch
▁surr
athered
▁brave
▁matters
▁fer
▁hol
▁alar
▁weather
▁companion
▁mach
▁meaning
ipp
▁lovely
▁collect
▁crown
▁store
▁prepared
nown
▁opposite
aff
▁gray
▁cousin
▁greatly
▁ris
▁finding
▁avo
▁dor
▁inh
▁unh
▁offer
▁degree
▁honour
▁introdu
▁lake
▁rail
▁reading
▁por
▁attract
raph
▁frank
▁innoc
▁paris
▁writing
leep
▁alto
▁grat
▁breast
erve
fortun
ounced
ee
cing
ilar
▁charge
▁quarter
▁altogether
night
▁blow
▁feelings
▁situation
ners
▁fate
▁hurt
▁asleep
▁caused
▁dav
▁hide
▁alive
cil
▁mix
▁band
▁stat
pected
▁thrown
ding
ites
▁cook
▁memory
▁equal
▁meeting
▁bent
▁exec
▁kingdom
▁surface
ron
▁grey
▁loss
▁constit
ointed
▁cruel
▁rough
▁ess
▁accompan
▁duke
▁fill
▁liked
▁swift
▁curious
▁opening
pet
chen
▁seek
▁servants
arest
oura
▁due
▁sides
ibility
▁height
▁united
▁questions
▁gh
▁hath
▁reve
▁satisfied
▁pity
▁dollars
▁ange
ara
▁empty
▁lifted
▁square
▁suspic
▁mart
▁happen
▁ordered
▁yours
▁settled
▁perm
▁freed
▁distingu
▁laughing
▁supposed
osop
▁rode
▁hurry
▁value
▁talked
▁listened
▁papa
bur
▁destroy
▁rejo
▁attend
▁hurried
▁vast
▁rising
▁pack
▁study
ille
▁nose
▁rise
▁taste
▁forced
▁telling
▁language
▁ow
▁rul
▁capt
▁serve
▁sufficient
▁roof
▁pin
▁woods
▁bas
▁egg
▁pan
▁diam
▁regular
▁building
▁frightened
▁sam
▁tit
▁distur
▁valley
eer
▁special
▁station
hest
▁fault
▁shape
▁libert
▁smiling
ocr
▁sacri
▁justice
▁directly
▁philosop
con
like
▁sixty
▁stairs
yr
▁amb
erved
▁accompl
▁material
▁watching
▁ordinary
▁gloom
▁method
▁passage
▁usually
▁christian
▁eur
▁orders
▁season
▁seized
▁weeks
▁honest
ify
▁stock
▁pride
▁growing
ested
▁doesn
▁suffer
▁soldier
▁unf
▁bold
▁ignor
▁lines
▁flower
▁threat
chief
▁ende
▁exer
▁kitchen
▁supper
▁discuss
▁remarked
ades
▁wed
▁gathered
▁mistress
▁nearer
▁affairs
▁despair
▁streets
uses
▁depend
▁moving
▁deb
eping
▁putting
▁yo
uce
onsieur
▁monsieur
ik
rance
▁york
▁catch
▁contrary
ude
hens
▁ble
▁imagine
▁hole
▁search
rem
▁bir
▁cro
eds
▁cit
imate
icated
lin
▁receive
min
▁march
▁twice
▁europe
yn
aly
▁jer
▁reck
antic
▁hills
▁working
▁movement
▁arth
▁favour
▁pulled
ole
▁lod
▁dign
▁prove
ocked
usted
lished
▁arthur
▁proved
▁engaged
▁possession
▁aut
▁haven
▁observ
▁uns
▁aside
▁stones
▁process
▁hence
▁instance
▁advantage
▁authority
▁cler
▁farm
▁brothers
▁mas
ception
▁flew
ails
uls
▁fart
▁difference
▁solemn
▁weight
▁rate
▁fortun
set
▁doors
▁familiar
▁address
▁spect
▁played
▁di
▁holy
▁aware
ky
▁test
▁sympath
lls
▁dogs
▁shame
▁distant
▁thorough
▁explained
▁interesting
▁wore
▁endeav
▁ol
▁bull
▁busy
▁named
▁similar
▁ale
▁amount
▁color
▁liter
▁moments
▁instantly
ker
theless
▁seated
▁worked
▁pard
▁emper
agn
nds
bers
unch
▁brit
▁measure
▁excellent
▁nevertheless
▁myster
▁tongue
▁hearing
▁throw
▁naturally
illa
ulous
▁takes
▁officer
▁confidence
▁wil
▁indian
▁suf
enance
▁imper
▁disappeared
rid
itable
▁splendid
▁necessity
▁unw
▁vir
▁earl
▁drive
▁names
▁parent
▁unknown
▁president
den
▁wid
▁gods
▁represent
▁aud
▁franc
▁agreed
▁univers
▁keeping
▁smoke
▁produced
lv
▁terror
▁artic
▁magic
▁span
▁yester
▁liberty
▁support
▁witness
▁aug
▁dull
▁discover
asc
▁coast
ulation
▁prisoner
▁companions
zy
▁amaz
▁drove
▁powers
▁wicked
▁spirits
por
ford
▁rare
▁works
▁mighty
▁falling
▁evidence
vey
cent
▁stars
▁worthy
▁yesterday
▁particularly
▁diamond
▁pointed
▁possibly
▁cool
▁claim
ora
▁wants
▁design
▁sought
▁content
▁persu
▁otherwise
▁terms
▁yield
▁eliz
▁knees
▁rat
▁officers
▁trium
▁forms
▁finger
▁occurred
▁paused
▁travel
▁emperor
▁carrying
▁bob
alous
▁gree
▁ceased
▁ali
▁teeth
ruction
▁waters
▁triumph
umn
▁gle
▁lies
▁labor
▁failed
▁required
▁ener
soci
▁pair
▁shown
esh
▁double
▁hom
▁unhapp
▁example
▁entertain
▁principle
iles
▁pill
▁organ
▁upper
▁report
▁america
ental
▁fruit
▁group
▁softly
▁charles
▁buy
▁gives
▁affair
▁foreign
▁singing
▁possessed
isc
race
▁huge
▁milk
▁inhab
▁shouted
▁bask
▁james
▁der
▁cases
▁rocks
▁rooms
asm
▁excit
▁proof
▁intended
▁fet
▁leading
▁unfortun
▁succeeded
▁satisfaction
▁ber
▁dance
▁priest
▁farther
▁freedom
rose
▁drop
▁paint
▁arrange
▁majesty
father
▁moral
acle
▁tele
lessly
▁gently
▁hearts
▁mentioned
▁religion
▁pardon
▁neighbour
▁rule
▁associ
▁invent
▁demanded
▁curi
angers
▁regret
▁seventeen
▁plat
▁clearly
▁progress
▁ros
▁record
▁presented
using
▁bore
▁fairy
▁joined
▁seventy
▁key
▁unto
▁cabin
▁sheep
▁fourth
▁gather
▁instinct
▁suffering
ival
▁vig
▁diss
▁fully
attered
▁events
▁hidden
▁advanced
▁dreadful
▁excitement
room
▁awful
▁pounds
▁card
▁advice
▁prefer
▁voices
▁calling
road
▁sen
iance
▁stuff
▁papers
▁powerful
▁resolved
sie
▁birth
▁afford
▁explain
▁interested
▁pos
iments
▁grief
▁impat
hy
▁bor
▁shel
▁brill
bly
▁shoot
▁clever
ese
▁hither
▁interv
▁excited
pap
▁obey
▁virg
▁chest
▁steam
▁edward
▁police
▁shining
▁undert
▁considerable
▁ing
▁cart
▁sprang
▁wag
▁cord
▁fields
▁ep
▁nodd
▁pictures
▁conditions
▁fox
▁cred
acious
▁desired
▁dur
▁ride
▁conqu
▁fierce
▁served
dle
▁adam
▁ships
▁information
ighed
istic
▁paul
▁yard
▁needed
▁indians
▁sooner
▁perceived
▁importance
mond
ture
▁crit
▁hosp
ternal
rant
▁memb
▁share
▁anybody
cer
illy
▁iss
▁kat
▁fold
▁salt
▁type
ortion
▁merch
▁couple
▁absolutely
asant
▁citiz
▁devil
▁abandon
▁willing
▁curiosity
▁imagination
▁task
▁stead
▁sunday
▁suffered
ha
com
hold
llen
▁env
▁rad
▁appl
▁occupied
▁countenance
▁dawn
▁lock
▁apparently
abel
▁slave
▁smith
▁actually
▁completely
iest
▁betr
▁mult
▁tight
▁welcome
▁regarded
ett
▁dw
asped
▁myst
▁ain
▁daily
▁dying
▁refused
▁extraord
▁suggested
pir
▁bay
▁alas
▁crime
▁bodies
▁accident
▁modern
▁sigh
hus
iot
ette
asons
▁feat
▁brief
▁elsie
▁superior
▁whenever
with
▁oce
▁hate
▁mile
▁rapidly
▁odd
▁horror
▁thanks
ulf
▁brain
▁flesh
▁cottage
▁stepped
▁professor
▁jes
▁club
▁flight
▁bon
▁dun
▁drag
▁buck
▁ninet
ization
▁driven
▁crossed
ips
▁barb
▁size
▁maint
▁midst
▁worst
▁points
▁nay
gment
▁sour
▁lands
▁truly
▁august
▁science
gers
▁cult
▁equally
▁education
▁wet
▁instr
▁tempt
▁trade
▁inquir
▁picked
▁relations
vert
ishop
ability
▁interp
▁rushed
▁taught
▁expressed
▁political
now
▁anger
▁displ
▁resist
▁sty
▁sylv
▁dozen
ids
▁crim
▁foolish
▁hunting
▁dangerous
▁interrupted
ially
▁deck
▁worn
▁remarkable
▁meat
rop
acks
cked
▁fis
▁asking
▁belief
▁severe
▁members
▁mistake
▁delighted
mas
▁cop
ading
▁obst
▁behold
▁gradually
resp
▁ken
▁control
▁sisters
▁sixteen
▁pu
agnan
▁assert
▁dreams
▁murder
artagnan
▁moreover
▁oak
aries
▁nerv
▁depth
▁enemies
▁nap
asing
▁lone
▁hotel
▁kindly
▁careful
▁inquired
▁wings
▁eleven
▁relief
▁wounded
ification
acity
▁stup
▁invol
▁origin
▁species
▁sex
▁exped
▁physical
▁creatures
reg
▁nur
▁plenty
▁newspap
▁saf
▁keen
▁saved
▁recollect
▁flour
▁independ
aunt
aling
while
▁begun
▁glory
▁hoped
▁lover
▁shoes
kin
▁et
▁aim
▁mamma
▁frequently
▁sang
▁buried
▁famous
▁princip
▁approached
▁smooth
▁useful
kins
▁tot
▁proceeded
husi
▁ocean
▁enthusi
▁tar
stone
▁grim
▁harry
▁message
▁fac
▁slept
▁stern
▁charming
▁hyp
▁park
▁distr
▁loose
▁desper
▁consciousness
aming
▁alex
▁lamp
▁meas
ication
▁feather
▁accepted
▁colle
hem
▁indif
▁minds
▁playing
▁fighting
▁precious
▁knife
▁union
▁evident
oes
iana
▁hale
▁detect
▁exceed
▁capital
▁century
▁entrance
▁meanwhile
▁bew
▁dig
▁arose
▁magnific
▁wondered
ailed
stand
▁stage
▁thrust
▁absence
▁burning
▁forgive
erous
uments
▁facts
ustomed
▁capable
▁hut
▁lest
▁mour
▁closely
▁objects
▁removed
▁constant
▁neighbor
▁friendship
lla
▁horn
▁unex
▁virtue
▁extraordinary
▁sha
▁alice
▁level
▁anyone
▁explan
▁indign
▁jealous
▁ug
▁ack
▁correct
▁somebody
itor
▁forb
▁admit
▁basket
▁recall
▁assured
iable
▁thom
pelled
▁helen
▁plant
▁kissed
▁increased
▁stretched
▁everywhere
▁nob
▁ahead
▁forgot
▁strike
▁throat
▁popular
▁fare
▁qual
▁acknow
▁assemb
▁eighty
▁wishes
▁retreat
▁kindness
▁trembling
▁ly
▁emp
▁ghost
▁clouds
▁larger
▁contempt
▁sympathy
▁grandfather
oe
oused
▁hind
▁queer
▁choose
▁highest
▁accordingly
izing
▁russ
▁grant
▁awa
▁frag
▁wheel
for
▁fro
ograph
▁begged
▁pressed
▁miserable
▁notes
▁choice
▁slaves
▁governor
oms
ivered
▁nurse
▁remind
▁military
▁listening
▁impression
iber
▁ara
oops
anches
ration
ushing
▁ended
▁innocent
▁treasure
igned
▁waves
▁arrival
▁becomes
▁informed
bb
▁divine
▁excuse
▁experi
▁flying
mend
▁aid
hamed
▁sell
▁bought
▁manage
▁marked
▁reward
▁acquaintance
▁hadn
▁crying
▁indust
▁ashamed
▁visible
▁fred
▁join
▁weary
▁hungry
▁lights
estic
stairs
▁restr
▁stories
abeth
astic
▁baron
▁sounds
▁throughout
aker
▁dish
▁sout
▁avoid
▁bowed
▁scream
▁delicate
▁somewhere
▁mysterious
ocks
aches
▁amid
orious
▁blank
▁uneas
▁unhappy
▁bos
▁caut
▁impl
▁dignity
▁elizabeth
▁obt
▁pow
▁wra
▁comr
▁stiff
▁advance
▁immense
▁judgment
ilst
ldom
▁gay
▁tis
▁elder
▁goods
▁hollow
▁prompt
▁temple
▁unable
▁understanding
pher
rows
▁remains
▁adventure
eral
▁bridge
onscious
▁lighted
▁parents
▁project
▁thoroughly
ffe
▁cher
▁weap
▁safety
▁admitted
▁infinite
▁comfortable
▁ox
▁hers
▁rome
▁price
▁settle
▁emotion
▁escaped
▁returning
anges
▁hopes
▁convin
▁pushed
▁appears
▁plainly
▁intelligence
▁coo
▁vic
▁unus
ensive
▁wound
▁seldom
▁bearing
▁thunder
▁sup
▁meal
inging
▁contem
▁helped
▁reckon
elt
▁hint
▁horri
▁stupid
▁intention
▁ash
ulated
▁david
▁thinks
▁becoming
▁fem
▁rope
lection
▁fellows
▁eggs
▁redu
▁secure
rit
gypt
▁exhib
aud
mother
▁egypt
▁skill
otted
▁tied
▁virgin
▁whence
▁friendly
▁prospect
▁religious
▁extent
▁original
irm
▁dan
▁fed
ville
▁cell
▁mood
▁billy
▁cheeks
▁colour
▁eating
▁eagerly
▁minister
▁hab
achel
orous
▁million
▁patient
▁arranged
▁faithful
▁concerned
rees
▁unl
▁ease
▁wolf
▁bride
▁waste
ceiving
▁fairly
▁maiden
▁whilst
▁practice
▁provided
▁concerning
yer
iture
ology
▁recom
▁hastily
▁ga
▁tale
▁tiny
▁trib
▁yards
ointment
▁violent
▁features
▁ze
▁ate
▁fled
▁hans
▁rank
▁sons
▁theat
▁trick
▁somehow
held
▁bee
right
▁older
▁mental
▁inhabit
▁washing
▁branches
▁accustomed
▁unconscious
▁constitution
▁mud
▁wes
▁pink
▁bishop
▁engage
▁supply
▁whisper
▁substance
▁constantly
pes
▁gain
illing
▁amuse
▁greet
▁roman
▁uncom
▁vague
respond
▁obtain
▁correspond
▁deeply
▁nodded
▁slipped
▁proportion
ols
▁cave
▁cloth
▁log
▁partly
▁portion
▁laughter
▁established
▁fee
▁rust
▁spare
▁wholly
▁consideration
▁joe
▁silk
▁lonely
▁nut
rated
▁adop
▁exha
▁gaze
▁lion
▁cliff
▁merry
▁signs
▁struggle
ka
verse
▁crew
▁lack
▁efforts
▁treated
▁uttered
▁christmas
▁hell
▁mead
▁withd
▁sylvia
▁glanced
▁emer
▁feast
▁haste
▁resemb
▁savage
▁hanging
▁scot
▁winds
▁fought
▁gained
ators
▁glim
▁outl
▁benef
▁mercy
▁quant
▁tower
▁consent
▁prim
▁dared
▁victory
▁consequence
ped
chan
▁scra
▁image
▁indul
▁purch
▁patience
▁principles
▁obv
utions
▁shock
▁prepar
▁conscience
▁clo
▁pred
▁knock
▁repro
▁circle
▁invest
▁troops
▁brilliant
fl
pse
urd
▁row
▁jose
▁sink
▁beard
▁setting
▁employed
aval
▁ming
▁mont
▁active
▁feared
▁handed
▁souther
oul
fice
more
▁hun
▁rab
icted
▁boots
▁rolled
▁amongst
▁obtained
▁rage
▁trail
▁jumped
▁forehead
▁profession
▁distinguished
acles
ourse
▁melan
▁anxiety
▁relation
▁sar
▁sank
▁fever
▁match
▁stared
▁bringing
▁murmured
▁discovery
ural
▁bree
ential
▁gazed
nce
▁trad
▁bottle
▁lux
▁pig
▁rig
▁guil
▁swim
ashing
▁print
▁loving
▁instruct
▁approaching
▁hang
atherine
▁protest
▁rum
▁sear
▁waist
▁compar
▁guilty
▁nervous
▁iv
▁subs
▁flung
▁suspicion
cip
▁flag
▁ugly
▁theory
▁throne
▁managed
▁reasons
▁nineteen
▁lan
▁member
▁preced
▁robert
▁bade
▁angel
▁wretched
erves
▁exch
▁embar
▁relie
▁shone
utation
▁showing
▁addressed
▁thousands
▁admiration
▁od
▁style
▁teach
▁farmer
▁native
▁dancing
▁sacrifice
field
▁brand
▁condem
▁consult
iven
▁misery
▁troubled
aws
bor
▁pir
▁kings
▁spend
▁shadows
▁sher
▁flore
▁kinds
▁swall
▁wisdom
▁current
▁interests
urity
▁trial
▁wooden
ivity
▁manif
▁needs
▁precise
▁sensible
▁principal
▁hit
▁nest
▁blame
▁arrest
▁convent
▁ay
▁ninety
▁described
ams
uing
▁robin
▁whist
▁approach
▁proposed
▁cas
▁voy
choly
▁reven
▁warri
▁refuse
▁stands
upon
▁lit
atory
▁lucy
▁pear
▁melancholy
cles
osen
▁cam
▁grate
▁novel
▁pause
▁credit
▁sacred
▁grie
▁trif
▁compre
▁energy
▁appreci
▁mounted
▁resumed
▁utterly
▁worship
ulse
▁ric
▁proc
▁wing
▁enorm
▁engine
▁produce
▁everyone
▁national
▁extremely
▁armed
▁manners
▁require
▁explanation
▁max
▁request
▁useless
▁departure
▁household
▁tow
▁solid
▁sport
tending
▁chosen
▁highly
▁illust
▁british
▁follows
▁mystery
▁respons
▁delightful
▁recognized
▁apr
▁bud
apped
▁dece
▁joseph
▁exercise
▁haw
▁leap
▁drift
▁distress
▁slightly
▁pipe
▁ward
▁philip
▁council
▁teacher
fall
onstr
▁aven
▁bath
▁coach
▁flood
▁forces
▁victim
▁vision
▁agreeable
col
icate
▁ends
▁gest
▁rush
▁dwell
▁concern
▁intense
▁knights
▁directed
▁commission
▁feed
▁tend
▁jesus
▁suppl
▁figures
▁observe
▁unexpected
▁pour
▁spar
▁torn
▁centre
▁rested
▁sighed
▁continue
▁sentence
chie
▁gri
conom
umbled
▁aloud
▁parli
▁stret
▁affected
▁profound
▁catherine
▁atm
▁asce
▁echo
▁gown
ilities
▁riding
▁sovere
▁shaking
▁composed
▁singular
▁accompanied
sec
▁bye
▁err
umber
▁brow
▁medic
▁atmosp
▁horrible
▁mistaken
▁confusion
▁recovered
▁sentiment
▁assistance
▁bol
▁halt
▁wake
▁louis
▁straw
▁swept
▁econom
▁poison
▁previous
▁absor
▁shade
▁absurd
▁transp
▁cheerful
▁surrounded
▁ere
rison
▁connection
▁adj
▁phr
▁unp
▁dise
▁cheek
▁wedding
▁younger
▁attitude
▁convinced
▁immediate
▁magnificent
ki
▁spark
▁genius
▁complex
▁subjects
lot
▁bark
▁brid
▁locked
▁strict
▁inclined
omen
▁aust
▁ling
▁prud
▁roll
▁clock
▁duties
▁market
▁leaning
char
worth
▁banks
▁guide
▁polic
▁stair
▁ragged
▁college
▁breaking
▁unfortunate
ales
▁fil
board
▁cath
▁pron
▁rebe
▁fleet
▁ident
▁senses
▁handker
▁countess
▁southern
▁revolution
▁nurs
▁rele
▁sees
▁awake
▁proble
▁stayed
▁midnight
▁handkerchief
▁sufficiently
▁ax
▁orn
isions
▁admin
▁bosom
▁loves
▁praise
▁curtain
▁connected
▁guns
atched
▁frame
▁horiz
▁plans
▁souls
▁pierre
▁striking
▁permitted
win
▁rib
▁craw
▁faced
▁plate
▁prayer
▁reader
▁utmost
▁devoted
▁norther
▁reality
▁glo
ounce
▁gift
▁ruin
▁wash
arf
edy
bour
▁page
▁negro
▁alexand
▁argument
▁increase
▁hid
▁nons
▁coffe
▁sugar
▁instit
▁parties
▁sounded
▁merchant
▁parliament
iform
uding
▁cities
▁intent
▁nights
▁machine
▁addition
▁sleeping
▁announced
▁wondering
▁astonishment
▁pil
▁chat
▁scen
▁delay
▁inhabitants
alt
nal
ault
bury
inent
oke
▁sob
▁conclusion
fied
▁gets
▁desir
▁drown
▁fisher
▁guests
▁divided
▁appointed
▁destroyed
▁coffee
▁render
▁commanded
▁acquainted
can
▁offe
▁pian
▁raise
▁mechan
▁degrees
▁deliber
▁privile
▁ignorant
▁doubtless
▁tad
▁alarm
▁crack
▁craft
▁guest
▁beheld
▁darling
▁afterward
sey
keep
kind
▁folk
▁soil
liness
▁practical
lebr
▁jac
▁risk
▁toss
▁steep
▁thirst
▁sharply
▁contract
▁concluded
pless
▁refer
▁causes
▁establish
▁bul
inate
▁katy
▁quality
▁travell
▁nonsense
omp
▁mc
quis
uable
uries
▁emph
lected
▁arist
▁easter
▁retired
▁muttered
rs
iation
▁scorn
▁quarters
▁contained
▁reflection
pent
▁chim
▁leaf
▁libr
▁puzz
▁scient
▁district
isp
mber
▁chin
▁june
▁assure
▁celebr
▁improve
▁belonged
▁realized
ox
uten
▁cig
▁ral
atives
▁charm
▁julia
rey
mith
nton
▁lev
▁subm
▁bones
▁shake
▁conven
▁physic
▁surround
▁intellectual
▁spl
▁loft
▁wave
▁overt
▁universal
▁atmosphere
▁punishment
icip
▁dir
▁hay
▁ages
▁plun
▁check
▁local
▁invited
▁extended
▁job
itate
▁prec
▁numerous
▁properly
▁rendered
▁throwing
▁troubles
anch
arse
▁crept
▁maybe
▁firmly
▁descended
eem
rier
▁drunk
▁shows
▁smell
▁candle
▁commer
▁leaned
▁polite
▁tables
▁compass
▁uniform
▁anywhere
▁deserted
▁entering
▁separate
▁successful
▁difficulties
add
iday
ived
rass
▁gas
▁reb
▁obsc
▁track
▁lieuten
▁enormous
▁protection
elia
udes
▁tro
▁leis
▁sunsh
▁thomas
▁unusual
▁movements
▁astonished
▁introduced
▁abo
▁unb
▁base
▁rang
▁sore
▁wept
▁liber
▁range
▁repub
▁calcul
ds
▁fatal
▁ideal
▁simpl
▁andrew
▁bushes
standing
▁leisure
▁nations
amm
▁rout
▁female
▁lately
▁visited
▁violence
▁lap
nders
▁clos
▁sorts
▁burned
▁humble
▁nearest
▁official
▁sed
▁ours
▁term
▁stamp
▁republic
▁wherever
▁appet
▁gates
▁actions
▁fourteen
▁startled
lle
agger
house
▁rude
▁tear
▁bloom
▁flash
▁stoop
▁stout
▁climbed
▁prosper
▁western
▁learning
▁stronger
▁sensation
la
▁lawyer
▁rays
▁final
▁isabel
▁perpet
▁numbers
▁investig
▁northern
rog
▁alt
▁dart
▁parl
▁rent
▁madam
▁ralph
▁changes
▁compelled
▁scattered
olic
▁rif
▁blaz
▁title
▁cattle
▁gloomy
▁thread
▁mankind
▁citizens
▁contempl
▁tax
▁ital
▁erect
▁fanci
▁habits
▁painful
▁richard
▁likewise
▁apartment
enger
teenth
▁cared
▁hunger
▁plants
▁vanished
cture
▁vers
▁giant
atively
▁actual
▁carpet
▁
e
t
a
o
n
i
h
s
r
d
l
u
m
c
w
f
g
y
p
b
v
k
'
x
j
q
z
<unk>
<sos/eos>
