<blank>
▁t
he
▁a
▁the
in
▁w
▁s
▁o
re
nd
▁h
▁b
er
▁m
ou
▁i
▁c
ed
▁f
at
en
▁and
▁to
▁of
on
is
ing
▁p
▁th
▁d
or
▁he
as
es
▁l
▁in
ar
an
it
ll
▁n
▁g
om
▁ha
▁be
▁e
le
ic
ot
ut
ow
▁y
▁was
▁wh
▁it
ld
▁that
ve
ly
se
id
▁on
gh
ent
st
▁re
im
▁you
▁u
▁we
ce
ion
ver
▁as
et
▁his
ay
al
ir
ith
▁for
▁r
▁with
▁st
ur
▁had
ad
ght
▁her
▁an
ter
▁not
her
am
ac
▁at
▁is
oo
ould
▁but
▁she
▁se
▁fr
▁him
▁k
ain
▁me
▁so
ch
▁sh
ill
▁su
▁sa
ight
red
ct
ro
il
ess
all
ke
▁my
ore
▁they
▁de
ri
▁whe
▁all
pp
ich
▁ne
us
▁j
ome
▁by
▁li
▁have
▁con
▁this
▁were
▁which
▁ch
ul
ard
▁from
qu
▁do
▁up
ge
▁v
▁ex
th
▁said
▁one
▁or
and
▁no
pe
ab
est
ant
ation
res
▁who
▁there
▁al
ous
▁man
▁fe
very
ie
ers
ame
ra
▁them
ust
▁mis
os
▁when
art
nt
▁ab
▁their
ast
out
▁int
fe
lf
ind
▁le
ood
▁would
▁com
ate
ong
ound
▁kn
our
ist
em
ked
ap
ough
▁go
▁if
ig
▁what
▁out
ol
▁are
um
▁wor
ak
▁been
▁un
un
itt
one
if
▁ar
ive
own
▁pl
▁af
ther
▁will
ven
self
▁pr
▁then
reat
▁tr
hed
▁pro
▁could
ity
ort
▁ro
▁br
▁tw
▁ag
▁sp
▁en
ack
ost
▁qu
ure
▁some
ake
ep
au
ace
▁am
ag
▁more
▁any
▁gr
hing
▁into
ved
ck
▁tim
▁did
▁cl
ond
▁your
ry
op
▁can
▁ad
▁other
ose
el
▁than
ance
▁very
▁bo
way
able
▁im
ine
▁now
ies
▁loo
ass
cc
▁us
ittle
▁like
▁little
▁bl
▁dis
ade
other
ite
are
▁day
ence
▁te
▁about
ought
ide
urn
▁how
▁after
▁time
▁over
ment
ice
wn
pt
fore
pl
ble
▁know
ove
ish
ree
▁fl
▁again
▁per
ci
▁too
ally
▁upon
▁well
nder
ving
▁see
▁has
▁great
▁our
ress
▁hand
▁pe
▁only
ars
ud
ather
ered
▁two
ied
▁say
ink
▁po
ount
ty
▁every
ire
▁app
ile
▁should
▁down
▁made
age
▁miss
▁before
▁thr
▁old
ings
▁its
▁mar
ick
▁good
ue
▁long
ions
tain
ward
per
ft
▁str
ang
▁such
ves
▁mu
▁these
▁pre
▁way
ful
een
▁even
▁off
ull
ated
▁ind
ious
▁came
led
ild
▁bec
▁under
▁fir
▁never
▁sm
▁mister
▁co
ness
▁much
▁sc
▁part
act
▁where
▁ey
▁rem
▁back
▁must
orn
▁gl
ber
ouse
ng
ect
▁just
▁cont
▁bet
▁ob
ans
▁cr
▁come
od
▁res
▁thought
▁spe
▁own
cl
▁think
ord
▁des
anc
▁may
ff
▁look
▁first
▁fo
▁men
ach
▁car
▁seem
oss
ried
▁might
ary
▁ho
ily
llow
▁comp
▁ye
▁himself
ise
▁beg
▁fa
▁house
▁let
▁through
▁here
ip
ath
▁jo
▁went
iz
▁imp
▁bel
▁sw
ave
▁sl
ted
▁get
▁new
ady
▁em
▁head
▁pass
omet
ren
▁att
ater
▁pres
▁ent
▁eyes
▁make
ared
▁life
ened
▁most
▁without
▁those
▁don
▁many
▁somet
▁op
▁away
▁wom
▁call
▁turn
▁acc
▁lo
▁young
▁cons
▁being
less
arm
ause
▁still
ory
ign
▁last
▁night
▁found
ks
ne
▁comm
▁nothing
ople
ons
▁tell
▁while
ors
▁people
ible
ase
▁though
▁ret
hes
ition
aking
▁yet
les
▁right
▁word
ian
▁three
pect
irl
▁ser
ens
ark
gg
▁put
▁room
▁saw
▁take
▁happ
ix
▁asked
▁count
▁hu
▁ear
fect
iv
▁child
▁nor
▁same
▁ac
▁missus
▁nat
ub
▁want
▁ever
get
▁heart
alk
▁prin
▁stre
ew
igh
▁inst
ways
thing
▁another
▁arm
▁left
▁shall
▁rep
ult
▁father
ertain
te
air
▁cour
▁dist
▁girl
▁end
ished
▁rec
▁once
ations
▁place
▁pers
▁face
ict
oth
▁took
▁seemed
iend
▁la
▁mat
▁always
▁supp
ject
▁love
▁work
▁el
▁gen
▁cap
▁gre
▁mom
▁moment
orm
▁sec
▁ple
ling
vent
▁why
▁friend
ower
▁wr
▁told
▁eng
▁mind
ently
▁looked
▁inte
ange
▁heard
▁king
aut
▁soon
pped
sel
ys
▁sat
cess
▁light
sw
▁set
▁poss
▁mo
▁appe
ia
▁mother
▁because
int
▁vo
lt
▁sur
▁things
▁answ
▁yes
▁something
ual
land
aught
av
▁rel
amp
▁far
man
▁dif
▁wa
▁unc
▁going
▁sub
▁give
ook
▁act
▁feel
▁find
ters
▁ass
▁reg
▁world
ced
ched
▁rest
dd
ever
▁mon
▁door
▁ma
▁gu
▁gi
▁wind
▁dre
uck
▁inf
▁home
▁return
▁ord
ical
▁thing
▁certain
▁ke
▁belie
▁hands
iver
▁near
ank
ial
▁form
▁exp
▁knew
▁woman
▁bre
ither
ail
▁each
▁del
▁against
cept
▁having
▁few
▁hard
ined
ool
▁bar
ired
▁cle
▁began
ting
▁kind
aps
▁char
▁better
ier
▁sil
▁sir
ited
ning
▁side
ner
▁unt
▁years
▁follow
ru
▁pur
▁enough
▁hum
▁eight
▁got
▁four
▁occ
▁pat
▁tre
▁care
▁ph
iness
▁inc
og
ple
▁disc
rest
de
ten
▁gener
▁sn
▁add
▁done
ock
▁betw
▁morn
▁seen
gether
▁min
ss
▁repl
▁whole
▁conf
▁called
aken
ully
most
▁beaut
▁sin
ndred
▁fore
▁hundred
▁bu
owed
▁dra
▁water
be
ying
▁between
so
▁morning
▁beh
▁ins
ating
▁felt
▁open
ps
▁hour
oub
ular
ures
▁pleas
▁white
▁toward
▁che
▁gra
▁inter
ised
▁hel
▁wond
▁herself
ung
ph
▁six
▁ter
▁oh
ained
▁half
▁inde
▁land
▁ste
▁among
▁turned
▁however
▁name
haps
osed
▁tra
▁ref
ering
▁also
ows
▁perhaps
ib
▁fam
▁mas
▁replied
ret
uth
▁cor
▁sle
▁does
ale
eter
▁quite
oud
▁adm
▁poor
▁myself
selves
ross
▁sim
▁adv
▁keep
▁course
▁sk
ents
▁fall
▁voice
xt
ces
▁small
▁both
ason
▁sent
▁sure
▁hor
▁gave
up
▁war
▁bro
▁col
▁whom
enty
iet
▁high
vel
▁ev
aint
▁cur
▁days
▁almost
▁less
▁contin
not
▁aw
cei
▁sy
ates
▁par
ute
▁thir
▁person
its
▁best
▁ed
▁mer
▁need
▁stand
ton
▁mean
▁together
▁lar
ately
▁power
▁words
fort
▁met
▁sou
▁until
uring
▁god
rent
hn
▁bus
ged
▁since
▁lay
▁fact
▁feet
▁anything
▁tri
▁next
oney
ured
▁dark
▁stood
▁present
▁brought
▁underst
ane
ense
▁black
▁vis
ife
atch
dden
ned
▁round
ash
ins
▁wood
▁along
ction
ressed
▁others
▁five
▁read
iled
▁sun
▁play
ued
▁bod
▁air
▁full
app
▁sudden
▁dr
nded
used
▁imm
▁looking
▁john
▁quest
▁serv
oy
fully
▁money
▁rather
▁dear
▁doct
▁hear
▁twenty
▁believe
▁passed
▁es
▁point
als
▁ide
ached
▁fin
▁red
ities
▁indeed
iss
▁use
▁compan
row
▁cou
▁gent
ention
▁mount
▁start
▁country
ably
▁mil
lic
ont
▁short
▁hope
ell
▁talk
▁sound
▁interest
▁cond
▁cried
▁eas
▁lau
▁taken
▁matter
▁help
ery
▁mor
pr
ief
ances
ments
▁boy
▁ext
▁run
▁uncle
uc
ody
ants
▁suff
aw
oke
vers
▁dec
▁gone
oc
▁whose
▁art
▁hon
▁answered
▁dire
▁real
az
illed
▁doub
▁inv
▁death
▁bed
▁themselves
▁lady
ceived
▁wonder
▁prom
▁nature
▁ele
owing
att
▁wife
ousand
▁thousand
ided
ield
▁behind
▁true
bed
▁diffe
ude
▁ben
ept
aces
anger
mb
▁large
▁often
▁hur
▁tem
▁around
ized
▁till
ts
▁pol
ser
ceed
▁women
▁ground
▁master
▁brother
▁cir
▁ill
▁mus
▁speak
▁during
▁gentle
body
▁spir
osition
▁fire
▁state
▁children
iful
▁law
edi
aced
ison
▁close
ider
▁hold
▁pri
ready
▁remem
▁fif
▁pap
▁already
▁fort
▁thus
▁doctor
sh
▁abs
▁sight
▁street
▁aff
▁fur
▁fell
overed
▁sign
▁became
▁general
imes
▁opp
▁returned
▁bes
▁exc
ually
▁step
▁wish
ham
▁dep
▁didn
▁fair
▁cannot
ians
▁body
▁town
ape
ken
ern
▁sum
▁foot
▁prof
▁alone
▁given
▁leave
iting
▁case
▁lord
ott
▁circ
▁order
▁everything
idd
ident
▁dead
aughter
aring
▁prop
akes
eric
▁meet
▁says
▁coming
ific
▁held
▁expect
▁num
▁son
▁swe
▁really
fic
▁ask
▁above
sy
ains
▁second
me
▁strong
▁sing
▁sleep
▁reason
old
▁leg
du
aim
cri
lish
▁fellow
▁big
▁doubt
here
ines
ister
▁dri
▁mad
alked
▁city
by
▁sit
▁walk
▁quick
▁evening
▁coll
▁expl
▁human
▁deep
▁wall
iew
▁ra
▁sometimes
▁clear
▁obser
▁ten
▁list
▁dream
▁cal
▁equ
▁sch
ience
▁kept
▁captain
▁understand
ger
▁sever
▁within
ety
▁gold
▁question
▁dro
▁mag
▁fear
▁object
▁friends
▁least
▁ir
▁strange
ey
▁lear
oon
▁bur
▁family
men
ages
cious
▁making
▁whether
▁beautiful
ster
▁hus
▁soci
▁times
▁mist
▁sort
▁year
tern
▁spr
▁hair
▁suddenly
▁est
▁low
▁manner
rew
▁chur
▁earth
▁either
ides
▁thou
▁itself
▁live
▁green
che
▁able
▁fine
▁rose
▁used
▁towards
▁different
▁ve
▁sea
ution
▁appro
▁grand
▁consider
unt
▁pa
▁lea
▁pub
▁several
ught
▁dem
▁free
▁lost
▁appeared
ek
▁else
▁past
▁pret
▁story
ric
▁appear
▁proper
▁possess
▁hill
▁gover
▁win
▁road
▁exper
▁known
▁possible
▁hy
itted
▁imag
iously
▁river
▁lad
▁cold
▁means
▁ca
teen
ility
▁bill
▁continued
ley
▁dev
▁har
ingly
eth
ony
ient
▁cent
ats
▁corn
▁necess
rence
▁horse
▁church
▁subject
▁ut
▁rus
▁spirit
▁cut
▁flo
ative
▁const
iam
▁reached
itting
▁express
▁ann
▁bit
▁begin
▁creat
▁immedi
ug
hel
isf
▁crow
▁glad
cted
▁bir
▁tou
▁won
▁arms
▁excl
▁gard
▁hast
▁lead
▁quar
▁table
▁bad
▁maj
ouble
▁mill
▁prince
▁move
▁become
▁longer
▁school
▁followed
▁therefore
ism
▁mot
▁forg
▁ship
▁stra
▁wild
airs
ased
band
▁business
enc
▁eye
▁sto
▁happy
ination
une
lled
▁blue
▁across
▁except
▁ef
ising
▁arri
▁show
▁occas
▁window
br
ets
anged
▁book
▁snow
▁summ
▁vill
▁certainly
empt
▁fav
▁mod
▁surpr
▁perfect
▁princess
gin
▁squ
▁tree
▁charac
▁diffic
eng
rie
▁joy
▁farm
▁requ
▁sold
▁wanted
▁english
uff
▁pal
▁decl
▁pain
▁peter
▁comple
▁govern
alth
▁husband
ote
ices
▁soul
▁ought
ny
▁view
▁prov
▁bring
▁quiet
▁ready
itude
riage
▁succ
▁partic
▁carried
▁daughter
▁sus
▁idea
▁rich
▁lived
▁answer
▁regard
▁feeling
▁jud
▁later
▁disapp
▁ap
▁news
▁purp
▁watch
ored
resh
▁fle
▁ran
▁danger
▁effect
▁eighteen
ining
▁satisf
ney
▁ce
▁acqu
▁alth
▁cast
▁added
▁party
▁americ
▁although
ius
▁mem
▁var
▁conc
▁hung
▁prep
▁affect
▁dut
▁fig
▁mur
▁pay
▁natur
ah
bit
day
▁breat
▁girls
▁taking
▁respect
▁success
▁suppose
ert
ror
use
utes
▁brown
▁trees
▁secret
outh
antly
▁accom
▁month
oun
▁vir
nding
▁mere
▁stay
▁truth
▁pretty
▁public
▁entered
▁hist
▁hours
ches
▁led
▁sor
ality
where
▁number
▁received
ggest
▁cre
▁thy
iling
▁dest
▁stud
▁letter
▁suggest
ze
umb
▁fre
aimed
▁break
▁field
▁spoke
▁tried
▁forward
pper
▁hop
atter
inted
▁scar
▁terri
▁comfort
king
side
▁cra
▁sweet
▁command
ames
yond
▁sal
▁blood
▁beyond
▁entire
▁garden
▁living
▁opened
▁delight
ask
lly
▁ru
ract
ously
▁england
▁character
iff
ots
▁chr
▁esc
arent
▁saying
ime
▁ah
▁je
▁doing
▁boys
▁sens
▁slow
▁thee
▁occasion
▁remember
over
▁cry
▁enj
▁soft
▁front
▁produ
▁chance
ped
▁eff
▁hen
anced
▁disp
to
ishing
▁exist
▁seven
▁treat
ils
▁port
▁chief
▁laugh
▁forest
▁bra
▁draw
▁warm
ounded
▁carry
▁visit
▁struck
▁particular
gr
ards
▁fight
ma
ighb
▁age
iment
▁anim
▁bene
▁trans
▁worth
▁neighb
val
ching
▁bell
▁cross
▁miles
▁resol
▁accord
▁beauty
rupt
▁sad
▁conse
▁sense
▁youth
▁sister
abel
▁ang
▁camp
▁deal
▁pict
▁import
▁walked
▁position
ply
▁line
▁phys
▁stri
▁crowd
▁inform
▁nearly
cul
▁lie
▁val
▁priv
▁account
ize
▁fer
▁heav
▁none
ically
idence
▁class
▁common
▁standing
▁late
▁direct
aded
raid
▁med
▁top
▁forth
▁silence
ager
▁anx
▁hea
▁hot
▁lab
▁sol
▁early
▁offic
▁further
wh
▁chap
▁prob
▁immediately
ead
els
ury
▁jer
▁pie
▁grew
▁court
▁north
▁bright
▁intell
ls
oof
hood
pend
▁din
▁une
▁infl
▁prot
▁caught
▁happened
rage
ented
▁neither
▁yourself
ler
▁ge
▁vi
ening
▁fast
▁opin
▁mouth
▁prison
der
ush
zen
▁force
ina
head
inct
ement
inary
▁dress
▁thick
▁third
▁accept
▁circum
▁sevent
ogn
▁hat
wards
▁rock
▁christ
▁descri
▁company
▁minutes
ives
▁det
icked
tered
▁fing
▁leng
▁super
▁change
▁thirty
▁profess
▁purpose
▁trouble
▁bab
▁enc
▁fun
▁gro
▁wat
▁enem
▁repe
▁seems
▁filled
bs
hen
▁rev
owers
▁conv
▁cloud
▁occup
▁afraid
▁imposs
▁pleasure
▁attention
iers
ledge
▁tail
▁wait
▁queen
ivid
▁obl
▁heaven
▁stopped
▁nar
▁main
▁pray
▁shout
▁recogn
form
ceive
isted
▁incl
▁inqu
▁meas
▁cause
▁compl
▁fifty
▁fresh
▁plain
▁started
co
ms
aged
attle
fered
usion
▁hall
▁vict
▁build
▁incre
▁loved
▁meant
▁attempt
▁convers
▁proceed
▁exclaimed
iar
ilt
▁tone
▁length
▁da
ghed
ging
ified
▁moon
▁shar
▁whis
▁pract
amed
rench
▁week
▁instead
imm
ior
onel
▁eat
▁mass
▁saint
▁hardly
▁service
▁mountain
▁ori
▁bear
▁died
▁jour
▁moved
▁av
ship
▁ago
▁pop
▁rom
cient
▁clot
▁charm
▁sitting
ists
▁ast
▁bird
▁vall
▁west
cially
▁floor
▁grace
▁south
▁forgot
▁remain
▁getting
end
uct
▁ban
▁rob
▁tor
▁phil
▁enjoy
▁tears
▁princi
▁natural
▁thoughts
▁impossible
bo
oom
▁dog
▁pen
▁sym
ences
ishes
▁whate
▁placed
▁circumst
acy
iced
▁arr
▁fat
▁rid
▁try
▁born
▁bott
▁pock
▁deter
▁broken
▁spring
▁laughed
▁property
▁boat
▁desp
▁self
▁madame
▁covered
▁talking
▁remained
▁hyp
▁lim
ondon
▁wide
▁london
▁whatever
ee
gu
come
▁tur
ushed
▁coun
▁laid
▁thor
itation
▁demand
▁determ
▁fright
▁scarce
li
ics
adow
ries
▁cab
▁def
pping
▁army
▁jane
▁admir
▁frank
▁influ
▁smile
▁storm
▁aftern
▁married
▁happiness
▁appearance
▁government
ork
▁er
read
▁tom
▁path
▁comes
▁effort
▁french
▁outside
▁wonderful
oes
▁den
▁inn
▁psy
▁anne
▁bank
▁below
▁exact
▁figure
▁seeing
▁thinking
▁gentleman
▁hig
▁sky
lling
ouses
▁hors
▁guess
▁desire
▁please
▁society
anch
ones
▁box
▁ball
▁exam
▁sett
▁contr
▁faith
▁major
▁wrong
▁nation
▁showed
▁streng
▁straight
uss
▁drew
▁mess
▁shore
▁forget
▁result
▁quickly
▁entirely
▁afternoon
▁necessary
str
und
arch
▁espe
▁food
▁mine
▁chair
▁relig
illa
▁rap
▁scen
itions
▁bound
▁giving
▁slight
▁expression
par
athe
iter
reme
rief
▁und
▁save
▁viol
▁commun
▁horses
▁opinion
▁difficult
eks
the
uit
ump
ancy
▁ant
▁ger
achel
ories
velop
▁auth
▁easy
▁grou
▁winter
por
ues
ugg
olog
ivers
▁mary
▁safe
▁situ
▁concl
▁easily
▁valley
▁dam
▁mid
▁mark
▁plan
▁pull
▁stop
▁couldn
▁turning
▁waiting
▁complete
▁distance
▁terrible
cial
▁div
▁gun
▁fool
▁harm
▁luck
▁sick
▁eager
▁heavy
▁stone
▁wished
▁especially
▁ty
▁fly
▁mir
▁wit
osing
▁lift
▁loud
tained
▁bread
▁event
▁paper
▁peace
▁belong
▁beside
▁houses
▁killed
▁office
▁single
ope
well
▁emb
ively
orted
▁hunt
▁lips
▁maid
▁grave
▁usual
▁expected
ges
vere
ection
▁broke
▁steps
▁simply
▁chapter
▁history
▁probably
yn
▁die
▁neg
▁pit
▁spo
ustom
▁doll
▁shut
▁author
▁dinner
▁slowly
▁besides
▁following
oll
ital
▁deg
▁loc
light
oured
▁wand
▁knows
▁thank
▁suffic
▁changed
▁speaking
▁strength
▁beginning
cy
acks
▁civ
▁exh
▁gall
▁closed
▁places
▁repres
▁smiled
▁mention
ams
▁sac
▁grow
▁forty
▁habit
▁marry
▁oblig
▁corner
▁trying
▁decided
▁conversation
oose
oved
▁cho
▁nin
▁smo
ature
▁duty
▁breath
▁presence
isc
aped
▁cro
▁conn
▁post
▁tall
▁makes
▁music
▁refle
▁remark
▁silent
▁arrived
▁pleasant
▁scarcely
gn
ov
rib
▁lu
istr
ooks
▁luc
▁ven
▁vol
▁cous
▁legs
▁nine
▁pale
▁race
▁rebe
▁broad
▁enter
▁origin
▁palace
▁allowed
▁fortune
▁cat
▁jew
gress
▁burn
▁symp
▁trust
▁woods
▁pocket
▁greater
▁understood
fer
ole
ises
▁purs
▁resp
▁shop
▁glass
▁spent
▁depart
▁raised
▁states
▁village
▁conscious
gy
▁gaz
▁calm
▁lake
▁polit
idently
▁simple
▁summer
eer
eness
▁drag
▁neck
▁pick
▁weak
aching
ancing
ission
▁occur
▁battle
▁latter
▁journey
osp
semb
▁fal
▁isn
acked
pered
▁aunt
▁beat
▁exce
▁fash
▁sole
▁tast
▁twel
▁grass
▁island
▁months
▁individ
▁letters
▁believed
▁handsome
▁marriage
▁condition
pan
wise
▁fix
ipped
ument
▁east
▁ones
▁sword
▁advant
▁honour
▁twelve
▁learned
▁pleased
▁observed
ift
ator
▁ice
▁seat
▁vent
▁civil
▁dread
▁enemy
▁guard
▁ladies
▁instant
▁surprise
ires
▁rub
▁evil
▁geor
▁absol
▁catch
▁mater
▁trave
▁walls
▁experience
angu
arer
clock
vation
▁bitter
▁golden
▁motion
▁develop
▁fashion
▁prevent
▁declared
uly
ding
itten
▁firm
▁stick
▁minute
▁american
▁personal
▁individual
▁circumstances
que
▁id
uded
uted
▁mut
▁sav
bered
isters
▁separ
ference
▁social
▁temper
▁yellow
▁finally
▁leaving
▁influence
▁knowledge
ec
cca
ibly
▁hes
▁suc
acher
▁fish
▁lean
▁send
▁surr
▁wasn
▁board
▁rapid
▁action
▁persons
▁walking
amm
oop
bing
▁gray
▁pond
▁ring
▁stro
▁apart
▁estab
▁favor
▁lower
▁press
▁shook
▁excell
▁disappe
▁various
ague
fast
▁fut
▁grat
▁host
▁spot
idered
▁aston
▁blind
▁liber
▁utter
▁isabel
▁merely
▁tender
▁absolute
▁direction
inc
atic
orth
▁fail
▁kill
▁shot
▁suit
▁langu
▁stret
▁former
▁unless
▁anxious
▁everybody
▁mountains
sc
ech
▁ow
▁cas
▁cow
▁ign
▁wel
idden
osity
▁barb
▁bull
▁empl
▁prev
▁virt
▁deser
▁franc
▁looks
▁worse
▁wouldn
▁beneath
▁dressed
▁succeed
▁evidently
io
ann
arily
ected
▁eliz
▁parl
▁rain
▁sail
▁escape
▁health
▁silver
iod
▁du
ulty
uous
what
▁eur
▁ver
▁oper
▁billy
▁train
▁fallen
▁narrow
▁preser
▁dropped
▁exactly
▁knowing
▁passion
▁darkness
▁repeated
▁somewhat
▁president
▁z
dom
het
pic
lend
ners
▁gar
▁ves
iding
▁capt
▁pure
▁thro
cience
▁reach
▁honest
▁indian
▁period
▁picture
▁afterwards
ese
rel
▁spec
pected
▁grown
▁heads
▁assist
▁strugg
▁indians
▁sympath
▁intellig
▁stranger
▁considered
jo
mn
amb
ara
ays
ency
umed
▁van
inite
▁empt
▁mort
▁prec
action
▁famil
▁piece
ishment
▁splend
▁ancient
▁quarter
▁according
▁important
▁perfectly
▁situation
let
▁ol
aled
iant
▁mel
▁pra
aming
under
▁kiss
▁magn
▁thin
▁extra
▁lying
▁psych
▁sharp
▁listen
▁morrow
▁running
▁material
asp
iny
pap
rem
enth
▁pun
iddle
▁exec
▁grad
▁liked
▁contro
▁employ
▁hypnot
▁vessel
atherine
▁consequ
▁rebecca
▁accompan
▁carriage
▁soldiers
▁gentlemen
ald
bur
ral
ests
▁arg
▁york
ctions
▁alive
▁ideas
▁impro
▁reply
▁threw
athered
▁glance
▁clothes
▁extreme
▁impress
▁written
▁forgotten
▁interrupt
oted
▁jul
▁ner
▁ris
▁cott
▁game
▁paid
▁star
▁toby
▁appre
▁built
▁cousin
▁courage
▁obliged
▁perform
▁prepared
▁discovered
ume
ayed
iety
raph
▁eld
▁roy
▁bare
▁dism
▁perm
▁sell
▁tong
iently
▁allow
▁remar
▁spread
▁passing
▁serious
▁apparent
▁companion
med
oint
pher
▁dry
▁due
▁hol
ables
▁agre
▁clim
▁mart
▁peas
itated
▁cheer
▁conce
▁group
▁honor
▁learn
▁scene
▁spite
▁tired
▁write
▁france
▁univers
▁weather
▁william
▁finished
▁breakfast
▁remembered
▁considerable
ggs
unk
ples
▁fit
▁org
usted
▁mach
▁pier
▁vain
▁ways
ounced
▁cabin
▁drink
▁equal
▁lives
▁proud
▁touch
▁bottom
▁edward
▁favour
▁future
▁played
▁rachel
▁fifteen
▁flowers
▁measure
▁possession
af
asm
tle
bert
imin
▁fet
▁fol
▁pet
▁furn
▁lose
▁roof
anging
▁drawn
▁attack
▁destro
▁nobody
▁wealth
▁growing
▁newspap
▁servant
▁catherine
▁determined
▁ur
▁bal
▁shr
▁tea
acing
itary
▁agree
▁clean
▁faint
▁distur
▁happen
▁knight
▁likely
▁talked
▁drawing
▁noticed
▁companions
ax
gged
oses
stem
▁wid
ental
ounds
▁comb
▁defe
▁hero
▁song
▁alarm
▁henry
▁jerry
▁patsy
▁sorry
▁europe
▁majest
▁system
▁confess
▁discuss
▁sisters
▁feelings
▁mistress
▁presently
cer
hip
ipp
ron
upid
▁bag
▁fan
abeth
ician
▁arch
▁club
▁earn
▁rail
▁wear
erable
fortun
iction
ointed
▁pecul
▁shape
▁advent
▁leaves
▁parent
▁accompl
▁affairs
▁opening
▁smiling
▁telling
▁elizabeth
uel
ades
▁pot
▁sen
amber
▁baby
▁cord
▁earl
▁lucy
▁burst
▁delic
▁desce
▁faces
▁moral
▁parts
▁store
▁lifted
▁greatly
▁offered
▁special
▁gathered
▁peculiar
▁promised
▁carefully
▁represent
▁everywhere
▁frightened
zz
rer
nown
road
itive
osite
▁cost
▁dign
▁fond
▁wore
▁speed
attered
▁george
▁dollars
▁advantage
▁existence
▁difficulty
▁ly
▁lou
anted
▁ears
▁edge
tering
▁becom
▁books
▁gloom
▁sheep
▁teeth
▁attend
▁breast
▁speech
▁holding
▁meaning
▁meeting
▁moments
▁private
▁promise
▁regular
▁watched
▁windows
▁building
▁greatest
▁occupied
▁servants
▁surprised
gar
hod
uls
yed
▁inh
▁jen
▁kne
▁wed
▁fart
▁iron
▁note
lished
▁angry
▁hills
▁noble
▁revol
▁taste
▁height
▁charles
▁excited
▁fingers
▁witness
▁brothers
▁sympathy
▁affection
▁ourselves
agn
min
ingu
oned
wood
▁cit
▁dar
▁dom
▁alto
▁bold
▁coat
▁ende
▁cover
▁shown
▁stock
▁tremb
ibility
▁concer
▁formed
▁opport
▁seized
▁virgin
▁altogether
hy
asc
tte
urs
hest
rodu
▁rul
▁unk
▁fier
▁papa
▁ruth
▁sand
illing
▁doesn
▁fixed
▁hurry
▁judge
▁wrote
▁agreed
▁moving
▁notice
▁threat
▁animals
▁pointed
▁receive
▁explained
▁perceived
▁satisfied
ites
▁amb
▁aug
▁bow
▁der
▁brid
▁dick
▁coast
▁fancy
▁shame
▁yours
ization
▁castle
▁higher
▁myster
▁terror
▁united
▁chamber
▁finding
▁passage
▁creature
▁opposite
▁shoulder
▁watching
▁possessed
aly
▁pi
ours
▁ine
▁lot
enced
ocked
poral
▁blow
▁curi
▁jack
▁span
▁surf
▁empty
▁offer
▁trail
▁upper
▁caused
▁degree
▁method
▁papers
▁shadow
▁falling
▁matters
▁quietly
▁welcome
▁charming
▁ordinary
now
oci
ocr
▁gh
aked
lyle
vert
▁unh
ision
ption
▁flew
▁gate
▁hadn
▁heat
▁pear
▁reve
▁wise
▁wret
icated
▁rough
▁steam
▁weeks
▁memory
▁sorrow
▁carlyle
▁justice
▁sixteen
▁station
▁opportun
▁resolved
▁creatures
aff
▁inj
▁sho
▁tal
▁band
▁cult
▁deck
▁educ
▁stir
▁trib
▁wine
▁aware
▁dragon
▁endeav
▁farmer
▁fields
▁fortun
▁gather
▁german
▁surely
▁thrown
▁america
▁conduct
▁engaged
▁support
▁touched
▁curiosity
▁generally
▁questions
▁shoulders
▁whispered
pet
son
cher
ival
▁aut
▁ble
▁jes
isher
▁bore
▁cand
▁mult
▁task
▁innoc
▁spect
▁troub
▁rising
▁search
▁spoken
▁suspic
▁tongue
▁shining
▁listened
▁produced
▁required
▁dangerous
leep
▁aud
▁gle
imate
▁cook
▁craw
▁ener
▁loss
▁nice
▁pros
▁rise
▁roll
▁skin
▁thom
▁doors
▁excit
▁noise
▁space
▁depend
▁inside
▁middle
▁needed
▁orders
▁regret
▁absence
▁imagine
▁ordered
▁advanced
▁supposed
▁et
iana
▁log
▁pos
▁vig
agnan
chief
night
otion
▁entr
▁myst
▁russ
▁false
▁frequ
▁persu
▁sixty
▁asleep
▁associ
▁failed
▁graham
▁proved
▁stream
artagnan
▁calling
▁farther
▁acquaint
▁corporal
▁remarked
▁excellent
▁excitement
▁imagination
eds
usi
ille
▁flat
▁hurt
▁seek
itable
lessly
▁artic
▁fairy
▁fully
▁imper
▁labor
▁paris
▁ships
▁sides
▁clouds
▁custom
▁finger
▁priest
▁suffer
▁attract
▁putting
▁refused
▁wounded
▁distingu
▁laughing
▁interesting
lv
yr
how
nes
ilar
▁mud
▁unw
ample
antic
ashed
asing
▁hide
▁rare
▁sake
▁vast
ainted
▁ahead
▁aside
▁birds
▁brain
▁colle
▁study
▁hearts
▁relief
▁waited
▁marilla
▁mistake
▁instance
▁movement
▁sufficient
▁disappeared
hem
ips
iles
uses
▁ali
▁bob
▁deb
▁iss
▁lod
▁rad
ested
stand
▁dale
▁dare
▁exte
▁jimm
▁musk
▁brief
▁brill
▁color
▁drove
▁emper
▁impat
▁instr
▁prete
▁rooms
▁royal
▁affair
▁experi
▁gently
▁lovely
▁coronel
▁earnest
▁introdu
▁parents
▁unknown
▁working
▁physical
▁splendid
▁interested
ify
lin
oid
umn
ails
thur
▁oak
▁odd
▁enth
▁jeff
▁lamp
▁murm
▁pity
▁sund
▁tele
▁carol
▁crown
▁fruit
▁merch
▁pride
▁smoke
▁arthur
▁wishes
▁arrange
▁hurried
▁kingdom
▁leading
▁directly
▁informed
▁occurred
▁presented
▁relations
▁succeeded
▁suffering
▁information
ium
pse
rid
▁hom
ament
eping
▁busy
▁huge
▁rate
▁rejo
pelled
▁hoped
▁organ
▁wants
▁animal
▁august
▁charge
▁events
▁fisher
▁hidden
▁instru
▁paused
▁report
▁sprang
▁unhapp
▁voices
▁advance
▁constit
▁cottage
▁counten
▁enthusi
▁hearing
▁popular
▁settled
▁spirits
▁streets
▁surface
▁contrary
▁progress
▁authority
▁intellect
▁suggested
▁approached
kes
oms
chen
ring
rose
▁ack
▁bay
▁buy
▁crit
▁dang
▁mile
▁ming
▁reck
▁subm
▁unex
▁cliff
▁ghost
▁lines
▁prove
▁serve
▁treas
▁acknow
▁nearer
▁desired
▁emperor
▁explain
▁majesty
▁playing
▁usually
▁washing
▁distinct
▁powerful
▁religion
▁entertain
add
ker
key
like
vous
▁els
▁ere
▁pan
▁row
arest
▁bent
▁cred
▁diam
▁obst
▁poet
▁admin
▁arose
▁baron
▁beast
▁encou
▁ignor
▁james
▁knees
▁named
▁sacri
▁subst
▁eighty
▁fourth
▁picked
▁solemn
onscious
▁century
▁colonel
▁conseil
▁curious
▁foreign
▁teacher
▁remarkable
do
ora
reg
yle
race
▁bri
▁key
▁eggs
▁meal
▁pill
terday
▁depth
▁dozen
▁gregg
▁invol
▁liter
▁mouse
ulation
▁ceased
▁forced
▁mighty
▁smooth
▁sought
▁undert
▁waters
▁distant
▁discover
▁expressed
▁professor
▁seventeen
▁yesterday
ulf
▁ug
acle
▁bor
▁ess
▁kit
▁suf
▁wag
ancho
asons
▁amaz
▁appl
▁knit
▁laws
▁nodd
▁pard
▁rome
▁seld
▁brave
▁swift
▁value
▁wound
ception
▁asking
▁bought
▁served
▁supper
▁demanded
▁intended
▁language
▁christian
▁increased
▁instantly
▁proceeded
▁difference
bb
go
zy
aves
itch
▁ale
▁fro
▁mam
▁pir
aster
ators
ially
ulous
▁grey
▁admit
▁begun
▁birth
▁bless
▁cruel
▁elsie
▁roman
▁slept
▁butter
▁explan
▁histor
▁modern
▁seldom
▁sooner
▁square
▁temple
▁liberty
▁shouted
▁accepted
▁admitted
▁prisoner
▁delighted
▁apparently
▁countenance
▁opportunity
aws
anor
ming
▁pin
▁scr
asped
onsie
orous
▁bask
▁buck
▁goes
▁hosp
▁memb
▁pair
▁fault
▁fleet
▁freed
▁hotel
▁trium
▁advice
▁anyone
▁couple
▁double
▁mental
▁secure
▁stupid
▁address
▁college
▁control
▁million
▁seventy
▁treated
▁carrying
▁dreadful
▁independ
▁instinct
▁admiration
▁profession
▁unconscious
oln
pir
chie
iest
▁hut
▁tit
▁unf
adows
alous
oused
ville
▁exha
▁fles
▁linc
atures
ushing
▁citiz
▁daily
▁devil
▁drive
▁forms
▁haven
▁price
▁shell
▁stiff
▁dreams
▁flight
▁indign
▁police
▁prefer
▁worked
▁despair
▁equally
▁hunting
▁lincoln
▁members
▁willing
▁evidence
▁extraord
▁whenever
▁absolutely
my
bor
set
bers
▁jap
▁por
acity
aling
iance
▁disg
▁scre
▁grief
▁medic
▁merry
▁ninet
▁terms
ability
theless
▁behold
▁invent
▁joined
▁pushed
▁seated
▁throat
▁capable
▁clearly
▁example
▁kitchen
▁princip
▁triumph
▁victory
▁writing
▁neighbor
▁possibly
▁surround
▁nevertheless
na
cil
ica
hold
mend
uten
▁dim
▁saf
▁til
astic
▁ange
▁duke
▁dust
▁nose
▁size
▁sylv
▁unus
ivered
▁awful
▁bluff
▁hopes
▁japan
▁loose
▁slave
▁takes
▁fairly
▁famous
▁lights
▁philip
▁pulled
▁resist
▁travel
▁content
▁eleanor
▁parliam
▁proport
▁visible
▁wedding
▁employed
▁laughter
▁magnific
▁official
▁addressed
▁immediate
▁physician
▁political
▁particularly
arr
erc
▁di
▁tow
aries
ighed
▁cler
▁dull
▁obey
▁test
▁trim
▁cases
▁claim
▁indif
▁mamma
▁midst
▁proof
▁saved
▁afford
▁amount
▁meadow
▁points
▁powers
▁record
▁taught
▁keeping
▁message
▁stepped
▁innocent
▁national
▁virginia
uce
▁ec
hens
▁dav
▁fox
▁san
ading
▁cool
▁dawn
▁emma
▁exch
▁nora
ograph
uments
▁displ
▁fever
▁inhab
▁reser
▁stead
▁tempt
▁whist
▁withd
▁advert
▁buried
▁inquir
▁plenty
▁worthy
▁capital
▁removed
▁retreat
▁similar
▁patience
▁pictures
▁mentioned
▁spiritual
▁importance
▁recognized
▁extraordinary
irt
inth
ulse
▁bas
▁ham
▁bath
▁dogs
▁fate
▁fold
▁rode
▁worn
iments
▁distr
▁goods
▁jason
▁prisc
▁twice
▁bodies
▁design
▁flower
▁forces
▁handed
▁horror
▁obtain
▁pardon
▁resemb
▁severe
▁stones
▁wicked
▁contain
▁highest
▁magistr
▁unhappy
▁accident
▁contempt
▁officers
▁original
▁unfortun
▁concluded
▁described
▁neighbour
▁priscilla
▁sentiment
▁conditions
▁mysterious
▁parliament
▁throughout
▁washington
▁satisfaction
oe
com
held
rant
▁ate
▁emp
▁net
▁unl
while
▁cart
▁mour
▁penc
▁qual
▁ugly
▁wing
▁bobby
▁flesh
▁relie
▁trade
▁tramp
▁truly
▁warri
▁yield
▁clever
▁convin
▁exceed
▁hollow
▁interp
▁member
▁pieces
▁proble
▁recoll
▁virtue
▁anybody
▁diamond
▁foolish
▁forgive
▁plainly
▁privile
▁project
▁reading
▁entrance
▁somebody
▁startled
▁otherwise
▁stretched
▁confidence
▁acquaintance
rop
▁cav
▁fed
▁lat
▁wig
▁wra
using
▁alas
▁atte
▁fled
▁hate
▁hers
▁horn
▁pack
▁troo
▁yard
ensive
▁facts
▁jesus
▁lover
▁march
▁minds
▁stage
▁widow
▁works
▁assemb
▁engage
▁gained
▁nights
▁pierre
▁safety
▁stairs
▁evident
▁immense
▁lieuten
▁respons
▁violent
ification
istration
▁actually
▁inquired
▁wretched
▁brilliant
▁conscience
bly
▁gn
▁pu
▁aid
▁env
▁gay
▁sex
pherd
verse
▁cher
▁gain
▁gest
▁mars
▁naut
▁ride
▁tiny
▁unto
ension
father
ternal
▁anger
▁canad
▁conqu
▁delay
▁dwell
▁elder
▁names
▁plans
▁recom
▁shade
▁sport
▁throw
▁whirl
ceiving
ruction
▁engine
▁excuse
▁hungry
▁interv
▁louise
▁marked
▁sounds
▁thrust
▁appreci
▁closely
▁enjoyed
▁hastily
▁process
▁rapidly
▁showing
▁soldier
▁countess
▁familiar
▁provided
▁shepherd
▁meanwhile
▁naturally
▁principle
▁religious
▁intelligence
cel
arse
aver
inte
osen
reek
rees
▁ard
▁cub
▁jim
▁wal
alled
istic
raged
▁adam
▁cose
▁eric
▁hind
▁lies
▁pool
▁risk
▁scra
▁armed
▁dance
▁dared
▁exerc
▁glory
▁stars
▁sunsh
▁uneas
▁choice
▁hither
▁income
▁intent
▁murder
▁rushed
▁softly
▁cosette
▁dignity
▁figures
▁patient
▁reasons
▁affected
▁entering
▁moreover
▁intention
▁administration
tt
etr
kin
▁gw
aker
anem
geon
guer
mond
resp
unch
with
▁bew
▁dig
▁dur
▁mal
▁sup
▁voy
anges
apped
board
ulted
▁card
▁flor
▁holy
▁join
▁lack
▁park
▁rage
▁rank
▁rule
▁sout
▁tend
▁corre
▁ended
▁folks
▁ganem
▁gives
▁queer
▁rocks
▁skill
guerite
▁credit
▁desper
▁fierce
▁fought
▁francs
▁larger
▁nodded
▁partly
▁strang
▁devoted
▁efforts
▁freedom
▁glanced
▁jealous
▁precise
▁attitude
▁suffered
▁superior
▁education
▁lieutenant
▁marguerite
▁unexpected
▁explanation
▁interrupted
mon
rog
ums
cent
keep
▁glo
▁lev
▁tot
erous
itate
ivity
stone
uding
▁betr
▁caut
▁drop
▁ease
▁forb
▁glim
▁pron
anches
orious
utions
▁awake
▁bride
▁david
▁drift
▁elect
▁faced
▁share
▁spend
▁stern
▁stout
▁vague
utation
▁basket
▁chosen
▁driven
▁sunday
▁crossed
▁peasant
▁reality
▁souther
▁uttered
▁younger
▁realized
▁sunshine
▁wondered
▁gradually
▁principal
▁acquainted
▁completely
fit
irm
fice
ilus
pson
ture
uced
▁ing
▁oce
▁sne
▁uns
▁diss
▁gaze
▁lily
▁peep
▁pian
▁slim
▁sour
▁banks
▁dutch
▁knock
▁patri
▁tight
▁wings
ilities
ustomed
▁arrest
▁flying
▁prompt
▁rolled
▁sylvia
▁throne
▁turtle
▁unable
▁victim
standing
▁arrival
▁created
▁objects
▁portion
▁inclined
▁nautilus
▁overcome
▁precious
▁sleeping
▁subjects
▁thorough
▁compelled
▁listening
▁somewhere
▁accompanied
▁approaching
▁comfortable
▁consciousness
▁consideration
ko
mas
nal
udd
urd
iber
osop
thew
▁adj
▁cig
▁lux
▁mix
▁raw
▁sha
▁wes
ology
ourse
▁desk
▁lock
▁sigh
▁type
engers
▁bowed
▁crime
▁exhib
▁indic
▁pause
▁style
▁tails
aration
▁eating
▁remind
▁season
▁useful
▁weight
▁assured
▁collect
▁fellows
▁lighted
▁masters
▁matthew
▁pressed
▁kindness
▁minister
▁adventure
▁recovered
▁frequently
▁proportion
▁established
den
vey
aunt
burg
kins
room
▁bat
▁hal
▁mos
▁obv
▁pil
▁wis
erson
onstr
▁amid
▁emer
▁fill
▁impl
▁kate
▁tent
acious
▁alice
▁disco
▁dying
▁flour
▁flung
▁manif
▁patty
▁reign
▁swept
ancholy
▁beheld
▁compre
▁contem
▁kindly
▁modest
▁reward
▁sailed
▁stared
▁thanks
▁cordial
▁eagerly
▁effects
▁enemies
▁mystery
▁shaking
▁spanish
▁branches
▁composed
▁constant
▁directed
▁everyone
▁fighting
▁merchant
▁military
▁philosop
▁regarded
▁announced
▁community
▁establish
▁newspaper
▁sacrifice
▁thousands
▁disappoint
▁melancholy
▁resolution
▁sufficiently
fl
net
pes
ette
lect
▁cup
▁udo
▁wet
hamed
inent
pleas
urity
▁arab
▁bobo
▁outl
▁pant
▁prud
▁sear
▁shed
arrass
ingham
mother
▁beard
▁crist
▁enorm
▁feast
▁level
▁ocean
▁repro
▁signs
▁stuff
▁towns
▁eleven
▁helped
▁ashamed
▁bearing
▁careful
▁dancing
▁managed
▁singing
▁wishing
▁becoming
▁distress
▁district
▁forehead
▁governor
▁struggle
▁embarrass
▁extremely
▁returning
▁scattered
▁wondering
▁impression
▁magnificent
fall
illy
lars
mosp
▁ned
▁nut
▁phr
arson
gment
iable
izing
umped
▁comr
▁ends
▁hole
▁impr
▁nest
▁ours
▁plat
▁proc
▁sank
▁trip
▁absor
▁bloom
▁chain
▁hated
▁shock
▁shone
▁solid
▁trick
▁uncom
onsieur
▁active
▁atmosp
▁bridge
▁cities
▁gloomy
▁marius
▁stands
▁whence
▁concern
▁francis
▁request
▁thunder
▁argument
▁belonged
▁communic
▁features
▁monsieur
▁nineteen
▁profound
▁agreeable
▁exception
▁household
▁necessity
▁separated
▁treatment
▁universal
▁commission
cip
for
omp
▁od
asha
cked
rors
▁fee
▁ric
▁rig
house
▁buff
▁crew
▁flee
▁fred
▁frog
▁milk
▁mont
▁ruin
▁wash
ulated
▁achie
▁annie
▁falls
▁fifth
▁greet
▁owner
▁smith
▁trout
▁waves
▁compar
▁guards
▁theory
▁complex
▁escaped
▁hanging
▁manners
▁nations
▁nervous
▁norther
▁breaking
▁examined
▁increase
▁southern
▁wandered
▁afterward
▁destroyed
▁doubtless
▁interests
▁accustomed
▁instrument
▁suggestion
▁astonishment
ae
ob
aud
bre
ids
ndy
tic
▁ep
▁ga
coat
iday
udes
▁apr
▁coo
▁cop
▁gri
▁lap
▁nay
▁sam
▁tum
▁unp
ailed
berry
eding
istol
▁adop
▁bree
▁flag
▁lawy
▁leaf
▁prim
▁seas
▁sees
▁valu
▁weap
atives
ential
inging
▁blank
▁crack
▁edith
▁exped
▁ferko
▁helen
▁loves
▁mercy
▁negro
▁range
▁shoot
▁suppl
▁choose
▁crying
▁cultiv
▁indust
▁jimmie
▁landsc
▁native
▁parted
▁troops
▁voyage
▁council
▁fishing
▁intense
▁mounted
▁natasha
▁protest
▁resumed
▁science
▁species
▁unusual
▁cheerful
▁obtained
▁prospect
▁shouting
▁appointed
▁exhausted
▁assistance
▁surrounded
▁accordingly
ka
ye
dle
edy
▁ox
▁ri
ived
riet
uing
▁fem
▁rag
▁reb
▁sob
▁unb
atory
umber
▁grim
▁june
▁libr
▁neat
▁orch
▁rend
▁rush
▁shaw
▁subs
▁trif
▁veil
▁whit
keeper
▁abund
▁cared
▁chuck
▁diana
▁funny
▁gramm
▁maybe
▁needs
▁older
▁ville
▁worst
▁yards
atively
respond
▁cheeks
▁energy
▁sighed
▁strike
▁wooden
▁brownie
▁consent
▁driving
▁inhabit
▁invited
▁protect
▁sounded
▁stories
▁bringing
▁families
▁friendly
▁imagined
▁millions
▁sensible
▁slightly
▁commander
▁trembling
▁astonished
▁atmosphere
▁connection
▁correspond
▁literature
▁accomplished
▁distinguished
▁dw
cles
itor
▁jun
▁pup
▁sar
agger
ander
▁alex
▁bade
▁grin
▁laun
▁pred
▁sang
▁toss
▁trad
pended
▁desir
▁fears
▁grant
▁haste
▁hence
▁match
▁piano
▁plung
▁purch
▁spark
▁straw
▁swall
▁trial
▁abroad
▁branch
▁depths
▁manage
▁marble
▁perpet
▁purple
▁tilney
▁beloved
▁changes
▁committ
▁failure
▁forever
▁leaning
▁library
▁machine
▁officer
▁western
▁addition
▁goodness
▁hastened
▁infinite
▁likewise
▁convinced
▁discovery
▁prisoners
▁suspected
▁villefort
▁successful
▁destruction
▁grandfather
ino
ses
icky
mber
omin
otes
quis
▁ash
▁awa
▁ech
▁job
▁tis
▁vex
▁wil
ceval
uries
▁beth
▁cell
▁fare
▁frag
▁holl
▁hyac
▁july
▁mood
▁narr
▁salt
▁block
▁chest
▁flash
▁frame
▁goose
▁horri
▁plant
▁porth
▁roots
▁shoes
▁steep
▁theat
▁waste
▁abrupt
▁barric
▁begged
▁feared
▁loving
▁mercer
▁polite
▁preced
▁psyche
▁refuse
▁stayed
▁vision
▁classes
▁colored
▁crowded
▁emotion
▁improve
▁mingled
▁retired
▁setting
▁someone
▁useless
▁approach
▁describe
▁disposed
▁hyacinth
▁measures
▁perceval
▁practice
▁apartment
▁descended
▁gratitude
▁lightning
▁miserable
▁neighbors
▁newspapers
▁passengers
▁reputation
▁consequence
▁development
▁observation
ads
apt
ffe
wed
bits
fact
lets
olen
yser
▁aim
▁bul
▁dun
▁lan
▁nob
▁pow
▁rum
▁vic
acles
eenth
▁bond
▁cave
▁damp
▁dece
▁fulf
▁fund
▁lest
▁merr
▁page
▁pipe
apping
ardier
iation
racted
▁cheek
▁craft
▁final
▁grate
▁indul
▁jenny
▁knife
▁mabel
▁polic
▁restr
▁reven
▁score
▁title
▁bachel
▁causes
▁circle
▁crimin
▁deeply
▁hunger
▁kissed
▁leaned
▁motive
▁parish
▁pounds
▁provin
▁sovere
▁strict
kerchief
▁anxiety
▁crawley
▁glimpse
▁slipped
▁arranged
▁citizens
▁continue
▁japanese
▁previous
▁committee
▁concerned
▁countries
▁delivered
▁departure
▁landscape
▁movements
▁magistrate
▁thenardier
▁constitution
▁handkerchief
nah
chan
ilty
▁bon
▁dil
▁fac
▁nap
▁rab
▁roc
ounce
▁ages
▁guns
▁keen
▁lone
▁rent
ground
▁amuse
▁avoid
▁blame
▁drown
▁sazen
▁simon
▁smell
▁spare
▁views
▁vivid
itating
▁column
▁desert
▁extent
▁fishes
▁guilty
▁invest
▁leader
▁poyser
▁reckon
▁region
▁settle
▁beating
▁chiefly
▁counter
▁disturb
▁eastern
▁mission
▁monster
▁painted
▁porthos
▁product
▁attended
▁bachelor
▁delicate
▁deserted
▁enormous
▁exercise
▁hitherto
▁judgment
▁manifest
▁proposed
▁relation
▁thompson
▁disturbed
▁execution
▁suspicion
▁delightful
▁enthusiasm
▁revolution
ky
▁ze
aine
ares
eral
ieth
osal
ourt
rous
uary
uits
upon
ural
▁irr
▁joe
▁jos
▁nav
▁nie
amped
aping
icism
orter
ulate
▁aven
▁bern
▁dise
▁flut
▁glac
▁grie
▁nich
▁rang
▁rays
▁resc
▁shel
▁sher
▁sink
▁stat
▁trem
ashing
▁aband
▁bones
▁disgu
▁doctr
▁flock
▁giant
▁ideal
▁intim
▁kings
▁planc
▁satur
▁today
▁absurd
▁aspect
▁genius
▁headed
▁leaped
▁misery
▁musket
▁penetr
▁plague
▁sacred
▁savage
▁appears
▁applied
▁degrees
▁deliber
▁earlier
▁florina
▁painful
▁problem
▁produce
▁smaller
▁attacked
▁audience
▁bitterly
▁faithful
▁hundreds
▁midnight
▁northern
▁richmond
▁singular
▁steadily
▁striking
▁confusion
▁expedition
▁experiences
lon
vir
ilst
omen
▁dus
▁hay
▁lit
▁max
aches
onder
onies
verty
▁anti
▁dart
▁fasc
▁gods
▁mink
▁noon
▁prod
▁rene
▁tale
▁
e
t
a
o
n
i
h
s
r
d
l
u
m
c
w
f
g
y
p
b
v
k
'
x
j
q
z
<unk>
<sos/eos>
